{
  "version": "1.0",
  "truncation": {
    "direction": "Right",
    "max_length": 512,
    "strategy": "LongestFirst",
    "stride": 0
  },
  "padding": {
    "strategy": {
      "Fixed": 512
    },
    "direction": "Right",
    "pad_to_multiple_of": null,
    "pad_id": 0,
    "pad_type_id": 0,
    "pad_token": "[PAD]"
  },
  "added_tokens": [
    {
      "id": 0,
      "content": "[PAD]",
      "single_word": false,
      "lstrip": false,
      "rstrip": false,
      "normalized": false,
      "special": true
    },
    {
      "id": 100,
      "content": "[UNK]",
      "single_word": false,
      "lstrip": false,
      "rstrip": false,
      "normalized": false,
      "special": true
    },
    {
      "id": 101,
      "content": "[CLS]",
      "single_word": false,
      "lstrip": false,
      "rstrip": false,
      "normalized": false,
      "special": true
    },
    {
      "id": 102,
      "content": "[SEP]",
      "single_word": false,
      "lstrip": false,
      "rstrip": false,
      "normalized": false,
      "special": true
    },
    {
      "id": 103,
      "content": "[MASK]",
      "single_word": false,
      "lstrip": false,
      "rstrip": false,
      "normalized": false,
      "special": true
    }
  ],
  "normalizer": {
    "type": "BertNormalizer",
    "clean_text": true,
    "handle_chinese_chars": true,
    "strip_accents": null,
    "lowercase": false
  },
  "pre_tokenizer": {
    "type": "BertPreTokenizer"
  },
  "post_processor": {
    "type": "TemplateProcessing",
    "single": [
      {
        "SpecialToken": {
          "id": "[CLS]",
          "type_id": 0
        }
      },
      {
        "Sequence": {
          "id": "A",
          "type_id": 0
        }
      },
      {
        "SpecialToken": {
          "id": "[SEP]",
          "type_id": 0
        }
      }
    ],
    "pair": [
      {
        "SpecialToken": {
          "id": "[CLS]",
          "type_id": 0
        }
      },
      {
        "Sequence": {
          "id": "A",
          "type_id": 0
        }
      },
      {
        "SpecialToken": {
          "id": "[SEP]",
          "type_id": 0
        }
      },
      {
        "Sequence": {
          "id": "B",
          "type_id": 1
        }
      },
      {
        "SpecialToken": {
          "id": "[SEP]",
          "type_id": 1
        }
      }
    ],
    "special_tokens": {
      "[CLS]": {
        "id": "[CLS]",
        "ids": [
          101
        ],
        "tokens": [
          "[CLS]"
        ]
      },
      "[SEP]": {
        "id": "[SEP]",
        "ids": [
          102
        ],
        "tokens": [
          "[SEP]"
        ]
      }
    }
  },
  "decoder": {
    "type": "WordPiece",
    "prefix": "##",
    "cleanup": true
  },
  "model": {
    "type": "WordPiece",
    "unk_token": "[UNK]",
    "continuing_subword_prefix": "##",
    "max_input_chars_per_word": 100,
    "vocab": {
      "[PAD]": 0,
      "[unused1]": 1,
      "[unused2]": 2,
      "[unused3]": 3,
      "[unused4]": 4,
      "[unused5]": 5,
      "[unused6]": 6,
      "[unused7]": 7,
      "[unused8]": 8,
      "[unused9]": 9,
      "[unused10]": 10,
      "[unused11]": 11,
      "[unused12]": 12,
      "[unused13]": 13,
      "[unused14]": 14,
      "[unused15]": 15,
      "[unused16]": 16,
      "[unused17]": 17,
      "[unused18]": 18,
      "[unused19]": 19,
      "[unused20]": 20,
      "[unused21]": 21,
      "[unused22]": 22,
      "[unused23]": 23,
      "[unused24]": 24,
      "[unused25]": 25,
      "[unused26]": 26,
      "[unused27]": 27,
      "[unused28]": 28,
      "[unused29]": 29,
      "[unused30]": 30,
      "[unused31]": 31,
      "[unused32]": 32,
      "[unused33]": 33,
      "[unused34]": 34,
      "[unused35]": 35,
      "[unused36]": 36,
      "[unused37]": 37,
      "[unused38]": 38,
      "[unused39]": 39,
      "[unused40]": 40,
      "[unused41]": 41,
      "[unused42]": 42,
      "[unused43]": 43,
      "[unused44]": 44,
      "[unused45]": 45,
      "[unused46]": 46,
      "[unused47]": 47,
      "[unused48]": 48,
      "[unused49]": 49,
      "[unused50]": 50,
      "[unused51]": 51,
      "[unused52]": 52,
      "[unused53]": 53,
      "[unused54]": 54,
      "[unused55]": 55,
      "[unused56]": 56,
      "[unused57]": 57,
      "[unused58]": 58,
      "[unused59]": 59,
      "[unused60]": 60,
      "[unused61]": 61,
      "[unused62]": 62,
      "[unused63]": 63,
      "[unused64]": 64,
      "[unused65]": 65,
      "[unused66]": 66,
      "[unused67]": 67,
      "[unused68]": 68,
      "[unused69]": 69,
      "[unused70]": 70,
      "[unused71]": 71,
      "[unused72]": 72,
      "[unused73]": 73,
      "[unused74]": 74,
      "[unused75]": 75,
      "[unused76]": 76,
      "[unused77]": 77,
      "[unused78]": 78,
      "[unused79]": 79,
      "[unused80]": 80,
      "[unused81]": 81,
      "[unused82]": 82,
      "[unused83]": 83,
      "[unused84]": 84,
      "[unused85]": 85,
      "[unused86]": 86,
      "[unused87]": 87,
      "[unused88]": 88,
      "[unused89]": 89,
      "[unused90]": 90,
      "[unused91]": 91,
      "[unused92]": 92,
      "[unused93]": 93,
      "[unused94]": 94,
      "[unused95]": 95,
      "[unused96]": 96,
      "[unused97]": 97,
      "[unused98]": 98,
      "[unused99]": 99,
      "[UNK]": 100,
      "[CLS]": 101,
      "[SEP]": 102,
      "[MASK]": 103,
      "<S>": 104,
      "<T>": 105,
      "!": 106,
      "\"": 107,
      "#": 108,
      "$": 109,
      "%": 110,
      "&": 111,
      "'": 112,
      "(": 113,
      ")": 114,
      "*": 115,
      "+": 116,
      ",": 117,
      "-": 118,
      ".": 119,
      "/": 120,
      "0": 121,
      "1": 122,
      "2": 123,
      "3": 124,
      "4": 125,
      "5": 126,
      "6": 127,
      "7": 128,
      "8": 129,
      "9": 130,
      ":": 131,
      ";": 132,
      "<": 133,
      "=": 134,
      ">": 135,
      "?": 136,
      "@": 137,
      "A": 138,
      "B": 139,
      "C": 140,
      "D": 141,
      "E": 142,
      "F": 143,
      "G": 144,
      "H": 145,
      "I": 146,
      "J": 147,
      "K": 148,
      "L": 149,
      "M": 150,
      "N": 151,
      "O": 152,
      "P": 153,
      "Q": 154,
      "R": 155,
      "S": 156,
      "T": 157,
      "U": 158,
      "V": 159,
      "W": 160,
      "X": 161,
      "Y": 162,
      "Z": 163,
      "[": 164,
      "\\": 165,
      "]": 166,
      "^": 167,
      "_": 168,
      "a": 169,
      "b": 170,
      "c": 171,
      "d": 172,
      "e": 173,
      "f": 174,
      "g": 175,
      "h": 176,
      "i": 177,
      "j": 178,
      "k": 179,
      "l": 180,
      "m": 181,
      "n": 182,
      "o": 183,
      "p": 184,
      "q": 185,
      "r": 186,
      "s": 187,
      "t": 188,
      "u": 189,
      "v": 190,
      "w": 191,
      "x": 192,
      "y": 193,
      "z": 194,
      "{": 195,
      "|": 196,
      "}": 197,
      "~": 198,
      "¡": 199,
      "¢": 200,
      "£": 201,
      "¥": 202,
      "##o": 203,
      "§": 204,
      "##a": 205,
      "©": 206,
      "##e": 207,
      "«": 208,
      "¬": 209,
      "®": 210,
      "°": 211,
      "±": 212,
      "²": 213,
      "³": 214,
      "µ": 215,
      "##i": 216,
      "·": 217,
      "¹": 218,
      "º": 219,
      "»": 220,
      "¼": 221,
      "½": 222,
      "¾": 223,
      "¿": 224,
      "À": 225,
      "Á": 226,
      "Â": 227,
      "а": 228,
      "Ä": 229,
      "Å": 230,
      "Æ": 231,
      "Ç": 232,
      "È": 233,
      "É": 234,
      "##а": 235,
      "##n": 236,
      "о": 237,
      "Í": 238,
      "Î": 239,
      "Ð": 240,
      "Ñ": 241,
      "Ò": 242,
      "Ó": 243,
      "Ô": 244,
      "Õ": 245,
      "Ö": 246,
      "×": 247,
      "Ø": 248,
      "Ú": 249,
      "Ü": 250,
      "Ý": 251,
      "Þ": 252,
      "ß": 253,
      "à": 254,
      "á": 255,
      "â": 256,
      "ã": 257,
      "ä": 258,
      "å": 259,
      "æ": 260,
      "ç": 261,
      "è": 262,
      "é": 263,
      "ê": 264,
      "ë": 265,
      "ì": 266,
      "í": 267,
      "î": 268,
      "ï": 269,
      "ð": 270,
      "ñ": 271,
      "ò": 272,
      "ó": 273,
      "ô": 274,
      "õ": 275,
      "ö": 276,
      "÷": 277,
      "ø": 278,
      "ù": 279,
      "ú": 280,
      "û": 281,
      "ü": 282,
      "ý": 283,
      "þ": 284,
      "ÿ": 285,
      "Ā": 286,
      "ā": 287,
      "##о": 288,
      "ă": 289,
      "Ą": 290,
      "ą": 291,
      "Ć": 292,
      "ć": 293,
      "Č": 294,
      "č": 295,
      "Ď": 296,
      "ď": 297,
      "Đ": 298,
      "đ": 299,
      "и": 300,
      "ē": 301,
      "##и": 302,
      "ĕ": 303,
      "е": 304,
      "ė": 305,
      "ę": 306,
      "ě": 307,
      "##е": 308,
      "ğ": 309,
      "ġ": 310,
      "##r": 311,
      "##t": 312,
      "Ħ": 313,
      "ħ": 314,
      "ĩ": 315,
      "##s": 316,
      "ī": 317,
      "н": 318,
      "##н": 319,
      "İ": 320,
      "ı": 321,
      "т": 322,
      "ķ": 323,
      "ĺ": 324,
      "##т": 325,
      "ļ": 326,
      "Ľ": 327,
      "ľ": 328,
      "Ł": 329,
      "ł": 330,
      "ń": 331,
      "##k": 332,
      "ņ": 333,
      "ň": 334,
      "##z": 335,
      "ŋ": 336,
      "Ō": 337,
      "ō": 338,
      "ŏ": 339,
      "##l": 340,
      "ő": 341,
      "Œ": 342,
      "œ": 343,
      "ŕ": 344,
      "Ř": 345,
      "ř": 346,
      "Ś": 347,
      "ś": 348,
      "Ş": 349,
      "ş": 350,
      "Š": 351,
      "š": 352,
      "Ţ": 353,
      "ţ": 354,
      "Ť": 355,
      "ť": 356,
      "ũ": 357,
      "Ū": 358,
      "ū": 359,
      "ŭ": 360,
      "ů": 361,
      "р": 362,
      "ű": 363,
      "ų": 364,
      "##р": 365,
      "##c": 366,
      "Ź": 367,
      "ź": 368,
      "Ż": 369,
      "ż": 370,
      "Ž": 371,
      "ž": 372,
      "Ə": 373,
      "ƒ": 374,
      "ơ": 375,
      "##d": 376,
      "ư": 377,
      "ǎ": 378,
      "ǐ": 379,
      "ǔ": 380,
      "ǫ": 381,
      "с": 382,
      "Ș": 383,
      "ș": 384,
      "Ț": 385,
      "ț": 386,
      "ɐ": 387,
      "ɑ": 388,
      "ɔ": 389,
      "##с": 390,
      "ə": 391,
      "ɛ": 392,
      "ɡ": 393,
      "ɣ": 394,
      "ɨ": 395,
      "ɪ": 396,
      "ɲ": 397,
      "ɾ": 398,
      "ʁ": 399,
      "ʃ": 400,
      "ʊ": 401,
      "##u": 402,
      "ʒ": 403,
      "##m": 404,
      "##y": 405,
      "ʰ": 406,
      "ʲ": 407,
      "в": 408,
      "##в": 409,
      "##p": 410,
      "ʻ": 411,
      "ʼ": 412,
      "ʾ": 413,
      "ʿ": 414,
      "ˈ": 415,
      "ː": 416,
      "##w": 417,
      "л": 418,
      "̀": 419,
      "́": 420,
      "̃": 421,
      "##л": 422,
      "##.": 423,
      "##v": 424,
      "к": 425,
      "##к": 426,
      "͡": 427,
      "΄": 428,
      "Ά": 429,
      "Έ": 430,
      "##,": 431,
      "##j": 432,
      "Ό": 433,
      "д": 434,
      "##д": 435,
      "##h": 436,
      "Α": 437,
      "Β": 438,
      "Γ": 439,
      "Δ": 440,
      "Ε": 441,
      "Ζ": 442,
      "Η": 443,
      "Θ": 444,
      "Ι": 445,
      "Κ": 446,
      "Λ": 447,
      "Μ": 448,
      "Ν": 449,
      "Ξ": 450,
      "Ο": 451,
      "Π": 452,
      "Ρ": 453,
      "Σ": 454,
      "Τ": 455,
      "Υ": 456,
      "Φ": 457,
      "Χ": 458,
      "Ψ": 459,
      "Ω": 460,
      "ά": 461,
      "έ": 462,
      "ή": 463,
      "ί": 464,
      "α": 465,
      "β": 466,
      "γ": 467,
      "δ": 468,
      "ε": 469,
      "ζ": 470,
      "η": 471,
      "θ": 472,
      "ι": 473,
      "κ": 474,
      "λ": 475,
      "μ": 476,
      "ν": 477,
      "ξ": 478,
      "ο": 479,
      "π": 480,
      "ρ": 481,
      "ς": 482,
      "σ": 483,
      "τ": 484,
      "υ": 485,
      "φ": 486,
      "χ": 487,
      "ψ": 488,
      "ω": 489,
      "ϊ": 490,
      "п": 491,
      "ό": 492,
      "ύ": 493,
      "ώ": 494,
      "Ё": 495,
      "Ђ": 496,
      "##п": 497,
      "Є": 498,
      "м": 499,
      "І": 500,
      "##м": 501,
      "Ј": 502,
      "Љ": 503,
      "##b": 504,
      "##í": 505,
      "у": 506,
      "##у": 507,
      "Џ": 508,
      "А": 509,
      "Б": 510,
      "В": 511,
      "Г": 512,
      "Д": 513,
      "Е": 514,
      "Ж": 515,
      "З": 516,
      "И": 517,
      "Й": 518,
      "К": 519,
      "Л": 520,
      "М": 521,
      "Н": 522,
      "О": 523,
      "П": 524,
      "Р": 525,
      "С": 526,
      "Т": 527,
      "У": 528,
      "Ф": 529,
      "Х": 530,
      "Ц": 531,
      "Ч": 532,
      "Ш": 533,
      "Щ": 534,
      "Ъ": 535,
      "Ы": 536,
      "Ь": 537,
      "Э": 538,
      "Ю": 539,
      "Я": 540,
      "з": 541,
      "б": 542,
      "##з": 543,
      "г": 544,
      "я": 545,
      "##я": 546,
      "ж": 547,
      "##á": 548,
      "##г": 549,
      "й": 550,
      "##g": 551,
      "##ł": 552,
      "##1": 553,
      "##б": 554,
      "##:": 555,
      "ч": 556,
      "##ч": 557,
      "##ě": 558,
      "##0": 559,
      "##é": 560,
      "ф": 561,
      "х": 562,
      "ц": 563,
      "##й": 564,
      "ш": 565,
      "щ": 566,
      "ъ": 567,
      "ы": 568,
      "ь": 569,
      "э": 570,
      "ю": 571,
      "##ы": 572,
      "ѐ": 573,
      "ё": 574,
      "ђ": 575,
      "##\"": 576,
      "є": 577,
      "##ř": 578,
      "і": 579,
      "ї": 580,
      "ј": 581,
      "љ": 582,
      "њ": 583,
      "ћ": 584,
      "ќ": 585,
      "ѝ": 586,
      "ў": 587,
      "џ": 588,
      "ѣ": 589,
      "##S": 590,
      "##2": 591,
      "##-": 592,
      "ғ": 593,
      "##9": 594,
      "##ó": 595,
      "##ъ": 596,
      "##ą": 597,
      "Қ": 598,
      "қ": 599,
      "##ę": 600,
      "##ý": 601,
      "ң": 602,
      "##ж": 603,
      "##ь": 604,
      "ү": 605,
      "##P": 606,
      "##ц": 607,
      "##ž": 608,
      "##č": 609,
      "##)": 610,
      "##(": 611,
      "##х": 612,
      "##f": 613,
      "##š": 614,
      "##ż": 615,
      "##ś": 616,
      "##8": 617,
      "ә": 618,
      "##5": 619,
      "Ө": 620,
      "ө": 621,
      "##щ": 622,
      "##ш": 623,
      "##3": 624,
      "Ա": 625,
      "##M": 626,
      "##W": 627,
      "##4": 628,
      "##ů": 629,
      "##ю": 630,
      "##ф": 631,
      "##A": 632,
      "##K": 633,
      "##7": 634,
      "##6": 635,
      "##B": 636,
      "##С": 637,
      "##N": 638,
      "##П": 639,
      "Հ": 640,
      "##I": 641,
      "##V": 642,
      "##T": 643,
      "##C": 644,
      "##D": 645,
      "##R": 646,
      "##В": 647,
      "##J": 648,
      "##К": 649,
      "##O": 650,
      "##L": 651,
      "##А": 652,
      "Ս": 653,
      "##М": 654,
      "##H": 655,
      "##G": 656,
      "##Р": 657,
      "##Z": 658,
      "##ć": 659,
      "##F": 660,
      "##ń": 661,
      "Ֆ": 662,
      "##Н": 663,
      "##Б": 664,
      "##О": 665,
      "„": 666,
      "##„": 667,
      "ա": 668,
      "բ": 669,
      "գ": 670,
      "դ": 671,
      "ե": 672,
      "զ": 673,
      "##Т": 674,
      "##Д": 675,
      "##E": 676,
      "##э": 677,
      "ի": 678,
      "լ": 679,
      "##И": 680,
      "##Г": 681,
      "կ": 682,
      "##U": 683,
      "##ú": 684,
      "##x": 685,
      "##Л": 686,
      "մ": 687,
      "յ": 688,
      "ն": 689,
      "##Ф": 690,
      "ո": 691,
      "##Е": 692,
      "##Х": 693,
      "##/": 694,
      "##У": 695,
      "ս": 696,
      "վ": 697,
      "տ": 698,
      "ր": 699,
      "##X": 700,
      "ւ": 701,
      "##З": 702,
      "##Č": 703,
      "##«": 704,
      "##»": 705,
      "##ź": 706,
      "##Ш": 707,
      "##ň": 708,
      "ְ": 709,
      "##;": 710,
      "ֲ": 711,
      "ִ": 712,
      "ֵ": 713,
      "ֶ": 714,
      "ַ": 715,
      "ָ": 716,
      "ֹ": 717,
      "ּ": 718,
      "##Ч": 719,
      "ׁ": 720,
      "ׂ": 721,
      "##Š": 722,
      "א": 723,
      "ב": 724,
      "ג": 725,
      "ד": 726,
      "ה": 727,
      "ו": 728,
      "ז": 729,
      "ח": 730,
      "ט": 731,
      "י": 732,
      "ך": 733,
      "כ": 734,
      "ל": 735,
      "ם": 736,
      "מ": 737,
      "ן": 738,
      "נ": 739,
      "ס": 740,
      "ע": 741,
      "ף": 742,
      "פ": 743,
      "ץ": 744,
      "צ": 745,
      "ק": 746,
      "ר": 747,
      "ש": 748,
      "ת": 749,
      "##ť": 750,
      "##Ц": 751,
      "##'": 752,
      "##%": 753,
      "##Ю": 754,
      "##Ś": 755,
      "##Э": 756,
      "ء": 757,
      "آ": 758,
      "أ": 759,
      "##Я": 760,
      "إ": 761,
      "ئ": 762,
      "ا": 763,
      "ب": 764,
      "ة": 765,
      "ت": 766,
      "ث": 767,
      "ج": 768,
      "ح": 769,
      "خ": 770,
      "د": 771,
      "ذ": 772,
      "ر": 773,
      "ز": 774,
      "س": 775,
      "ش": 776,
      "ص": 777,
      "ض": 778,
      "ط": 779,
      "ظ": 780,
      "ع": 781,
      "غ": 782,
      "ـ": 783,
      "ف": 784,
      "ق": 785,
      "ك": 786,
      "ل": 787,
      "م": 788,
      "ن": 789,
      "ه": 790,
      "و": 791,
      "ى": 792,
      "ي": 793,
      "##Y": 794,
      "##Ž": 795,
      "##_": 796,
      "َ": 797,
      "ُ": 798,
      "ِ": 799,
      "ّ": 800,
      "ْ": 801,
      "##Ż": 802,
      "##Ж": 803,
      "##²": 804,
      "##Й": 805,
      "##q": 806,
      "##Ł": 807,
      "##ď": 808,
      "##Ř": 809,
      "##Ú": 810,
      "##ü": 811,
      "##*": 812,
      "##ö": 813,
      "##Q": 814,
      "##Щ": 815,
      "##ѝ": 816,
      "پ": 817,
      "چ": 818,
      "†": 819,
      "##†": 820,
      "##°": 821,
      "##!": 822,
      "ک": 823,
      "##ä": 824,
      "گ": 825,
      "##+": 826,
      "##]": 827,
      "##=": 828,
      "ہ": 829,
      "##[": 830,
      "##?": 831,
      "##&": 832,
      "##è": 833,
      "ی": 834,
      "##>": 835,
      "##<": 836,
      "##̀": 837,
      "•": 838,
      "##•": 839,
      "##α": 840,
      "##ο": 841,
      "##É": 842,
      "−": 843,
      "##−": 844,
      "##×": 845,
      "№": 846,
      "##№": 847,
      "##ν": 848,
      "ं": 849,
      "##ι": 850,
      "अ": 851,
      "आ": 852,
      "##ρ": 853,
      "##ō": 854,
      "##ô": 855,
      "##ç": 856,
      "##ς": 857,
      "##ë": 858,
      "##τ": 859,
      "##י": 860,
      "##³": 861,
      "##ø": 862,
      "##ß": 863,
      "###": 864,
      "क": 865,
      "ख": 866,
      "ग": 867,
      "##І": 868,
      "##ε": 869,
      "च": 870,
      "##λ": 871,
      "ज": 872,
      "##â": 873,
      "##Á": 874,
      "ट": 875,
      "##ا": 876,
      "ड": 877,
      "##σ": 878,
      "ण": 879,
      "त": 880,
      "थ": 881,
      "द": 882,
      "ध": 883,
      "न": 884,
      "प": 885,
      "##μ": 886,
      "ब": 887,
      "भ": 888,
      "म": 889,
      "य": 890,
      "र": 891,
      "##ו": 892,
      "ल": 893,
      "##|": 894,
      "व": 895,
      "श": 896,
      "ष": 897,
      "स": 898,
      "ह": 899,
      "़": 900,
      "##κ": 901,
      "ा": 902,
      "ि": 903,
      "ी": 904,
      "ु": 905,
      "ू": 906,
      "ृ": 907,
      "##ā": 908,
      "##ר": 909,
      "##ñ": 910,
      "े": 911,
      "ै": 912,
      "##à": 913,
      "ो": 914,
      "##§": 915,
      "्": 916,
      "##ã": 917,
      "→": 918,
      "##→": 919,
      "##π": 920,
      "॥": 921,
      "##ľ": 922,
      "##ל": 923,
      "##ה": 924,
      "##і": 925,
      "##υ": 926,
      "##$": 927,
      "##η": 928,
      "##å": 929,
      "##ă": 930,
      "##Í": 931,
      "##ل": 932,
      "##Ö": 933,
      "##ί": 934,
      "##Ź": 935,
      "##ū": 936,
      "##́": 937,
      "##Ó": 938,
      "##ė": 939,
      "##β": 940,
      "##γ": 941,
      "##Ť": 942,
      "##ά": 943,
      "##Î": 944,
      "##Ъ": 945,
      "##א": 946,
      "##ב": 947,
      "ক": 948,
      "##מ": 949,
      "##ό": 950,
      "##ѐ": 951,
      "##δ": 952,
      "##ת": 953,
      "##ı": 954,
      "##ê": 955,
      "##נ": 956,
      "##ё": 957,
      "##ò": 958,
      "##ي": 959,
      "##ω": 960,
      "##ر": 961,
      "##ş": 962,
      "##ש": 963,
      "##م": 964,
      "##ð": 965,
      "##ח": 966,
      "ন": 967,
      "প": 968,
      "##ע": 969,
      "ব": 970,
      "‰": 971,
      "ম": 972,
      "##‰": 973,
      "র": 974,
      "ল": 975,
      "##æ": 976,
      "##õ": 977,
      "##ن": 978,
      "##Ľ": 979,
      "##و": 980,
      "া": 981,
      "ি": 982,
      "##ș": 983,
      "##ī": 984,
      "##ד": 985,
      "##@": 986,
      "ে": 987,
      "##ő": 988,
      "##έ": 989,
      "##ə": 990,
      "্": 991,
      "##ή": 992,
      "##ן": 993,
      "##ب": 994,
      "##χ": 995,
      "##Κ": 996,
      "##~": 997,
      "##Α": 998,
      "##د": 999,
      "##ύ": 1000,
      "##φ": 1001,
      "##Ć": 1002,
      "##î": 1003,
      "##θ": 1004,
      "##ē": 1005,
      "##Σ": 1006,
      "€": 1007,
      "##€": 1008,
      "##·": 1009,
      "##Δ": 1010,
      "##Π": 1011,
      "##Å": 1012,
      "##Ď": 1013,
      "##ק": 1014,
      "##ï": 1015,
      "##Μ": 1016,
      "##س": 1017,
      "##}": 1018,
      "##ג": 1019,
      "′": 1020,
      "##′": 1021,
      "##פ": 1022,
      "##Đ": 1023,
      "##{": 1024,
      "##½": 1025,
      "##ğ": 1026,
      "##ة": 1027,
      "##ם": 1028,
      "##đ": 1029,
      "##כ": 1030,
      "##ा": 1031,
      "##º": 1032,
      "##û": 1033,
      "##ס": 1034,
      "##ּ": 1035,
      "##ј": 1036,
      "##ì": 1037,
      "##±": 1038,
      "##्": 1039,
      "##ώ": 1040,
      "##ț": 1041,
      "##ŏ": 1042,
      "##\\": 1043,
      "##ָ": 1044,
      "##Ι": 1045,
      "##ع": 1046,
      "##צ": 1047,
      "ა": 1048,
      "##ა": 1049,
      "##ù": 1050,
      "##ˈ": 1051,
      "##Ü": 1052,
      "##£": 1053,
      "##ְ": 1054,
      "ი": 1055,
      "##ი": 1056,
      "##Τ": 1057,
      "##Ε": 1058,
      "##ت": 1059,
      "##ح": 1060,
      "##µ": 1061,
      "##र": 1062,
      "##ַ": 1063,
      "##Ο": 1064,
      "##ζ": 1065,
      "##ִ": 1066,
      "##ז": 1067,
      "##ː": 1068,
      "##Ν": 1069,
      "་": 1070,
      "##་": 1071,
      "─": 1072,
      "##─": 1073,
      "##Χ": 1074,
      "##ه": 1075,
      "##Ø": 1076,
      "##Λ": 1077,
      "##Ы": 1078,
      "##Β": 1079,
      "##ج": 1080,
      "##ט": 1081,
      "##Γ": 1082,
      "##ա": 1083,
      "##Ç": 1084,
      "##ف": 1085,
      "##ق": 1086,
      "##œ": 1087,
      "″": 1088,
      "##″": 1089,
      "##ʻ": 1090,
      "##ی": 1091,
      "##ش": 1092,
      "##ك": 1093,
      "##Ş": 1094,
      "##ї": 1095,
      "##İ": 1096,
      "##ų": 1097,
      "##ѣ": 1098,
      "##ћ": 1099,
      "##म": 1100,
      "##©": 1101,
      "##ţ": 1102,
      "ე": 1103,
      "##ე": 1104,
      "‚": 1105,
      "##‚": 1106,
      "##ξ": 1107,
      "##Ω": 1108,
      "##न": 1109,
      "##Ä": 1110,
      "##Æ": 1111,
      "##ֹ": 1112,
      "##Ρ": 1113,
      "##त": 1114,
      "##Ō": 1115,
      "##ز": 1116,
      "##Θ": 1117,
      "##ि": 1118,
      "##ط": 1119,
      "რ": 1120,
      "##რ": 1121,
      "##ŭ": 1122,
      "##أ": 1123,
      "##÷": 1124,
      "##ն": 1125,
      "##ֵ": 1126,
      "ー": 1127,
      "##ー": 1128,
      "##ո": 1129,
      "##®": 1130,
      "##क": 1131,
      "##Υ": 1132,
      "ლ": 1133,
      "##ლ": 1134,
      "ン": 1135,
      "##ン": 1136,
      "##Η": 1137,
      "##Φ": 1138,
      "##ր": 1139,
      "##ी": 1140,
      "##व": 1141,
      "##स": 1142,
      "大": 1143,
      "##大": 1144,
      "ო": 1145,
      "##ო": 1146,
      "ệ": 1147,
      "##ệ": 1148,
      "##द": 1149,
      "##ĕ": 1150,
      "##خ": 1151,
      "க": 1152,
      "##य": 1153,
      "ச": 1154,
      "ს": 1155,
      "##ს": 1156,
      "ட": 1157,
      "##ɛ": 1158,
      "த": 1159,
      "##ǎ": 1160,
      "##^": 1161,
      "ப": 1162,
      "ம": 1163,
      "山": 1164,
      "ர": 1165,
      "##山": 1166,
      "##َ": 1167,
      "##ֶ": 1168,
      "##ׁ": 1169,
      "##प": 1170,
      "##Ý": 1171,
      "##ल": 1172,
      "##ـ": 1173,
      "ா": 1174,
      "ி": 1175,
      "##Þ": 1176,
      "ு": 1177,
      "##ص": 1178,
      "##ψ": 1179,
      "≤": 1180,
      "##≤": 1181,
      "##є": 1182,
      "ნ": 1183,
      "##ნ": 1184,
      "்": 1185,
      "##ु": 1186,
      "ვ": 1187,
      "##ვ": 1188,
      "##ի": 1189,
      "##ņ": 1190,
      "##¹": 1191,
      "##ÿ": 1192,
      "ạ": 1193,
      "##ạ": 1194,
      "##ɪ": 1195,
      "##ў": 1196,
      "##þ": 1197,
      "←": 1198,
      "##←": 1199,
      "##े": 1200,
      "ル": 1201,
      "##ル": 1202,
      "##ű": 1203,
      "国": 1204,
      "##国": 1205,
      "##¼": 1206,
      "##Ё": 1207,
      "の": 1208,
      "##の": 1209,
      "##Ζ": 1210,
      "##ह": 1211,
      "##њ": 1212,
      "中": 1213,
      "##中": 1214,
      "ོ": 1215,
      "##ོ": 1216,
      "##ւ": 1217,
      "ร": 1218,
      "##ร": 1219,
      "##ग": 1220,
      "მ": 1221,
      "##მ": 1222,
      "≈": 1223,
      "##≈": 1224,
      "##Ј": 1225,
      "ṣ": 1226,
      "##ṣ": 1227,
      "##ى": 1228,
      "♦": 1229,
      "##♦": 1230,
      "##ף": 1231,
      "##غ": 1232,
      "##ज": 1233,
      "##ɔ": 1234,
      "ా": 1235,
      "##յ": 1236,
      "##ِ": 1237,
      "##া": 1238,
      "##Ά": 1239,
      "##љ": 1240,
      "უ": 1241,
      "##უ": 1242,
      "თ": 1243,
      "##თ": 1244,
      "##ं": 1245,
      "##்": 1246,
      "్": 1247,
      "ḥ": 1248,
      "##ḥ": 1249,
      "า": 1250,
      "##า": 1251,
      "ἀ": 1252,
      "##ἀ": 1253,
      "ར": 1254,
      "##ར": 1255,
      "ས": 1256,
      "##ས": 1257,
      "Ἀ": 1258,
      "##Ἀ": 1259,
      "≥": 1260,
      "##≥": 1261,
      "ス": 1262,
      "##ス": 1263,
      "##ʃ": 1264,
      "##ʿ": 1265,
      "##ư": 1266,
      "市": 1267,
      "##市": 1268,
      "イ": 1269,
      "##イ": 1270,
      "##श": 1271,
      "↔": 1272,
      "##↔": 1273,
      "ῖ": 1274,
      "##ῖ": 1275,
      "∈": 1276,
      "##∈": 1277,
      "ラ": 1278,
      "##ラ": 1279,
      "ồ": 1280,
      "##ồ": 1281,
      "##Ș": 1282,
      "##ե": 1283,
      "##ो": 1284,
      "ბ": 1285,
      "##ბ": 1286,
      "♣": 1287,
      "ರ": 1288,
      "##♣": 1289,
      "##ץ": 1290,
      "ṭ": 1291,
      "##ṭ": 1292,
      "##ǔ": 1293,
      "™": 1294,
      "##™": 1295,
      "##ǫ": 1296,
      "##կ": 1297,
      "##ّ": 1298,
      "##ک": 1299,
      "##ɑ": 1300,
      "##ļ": 1301,
      "ῦ": 1302,
      "##ῦ": 1303,
      "##¾": 1304,
      "ế": 1305,
      "##ế": 1306,
      "ག": 1307,
      "್": 1308,
      "##ག": 1309,
      "ἐ": 1310,
      "##ἐ": 1311,
      "ễ": 1312,
      "##ễ": 1313,
      "##À": 1314,
      "∞": 1315,
      "##∞": 1316,
      "##ә": 1317,
      "ῶ": 1318,
      "##ῶ": 1319,
      "##ơ": 1320,
      "天": 1321,
      "##天": 1322,
      "##إ": 1323,
      "##տ": 1324,
      "子": 1325,
      "##子": 1326,
      "##Ą": 1327,
      "リ": 1328,
      "##リ": 1329,
      "##Ա": 1330,
      "♠": 1331,
      "##♠": 1332,
      "ク": 1333,
      "##ク": 1334,
      "日": 1335,
      "##日": 1336,
      "島": 1337,
      "##島": 1338,
      "##Ь": 1339,
      "本": 1340,
      "##本": 1341,
      "##ŋ": 1342,
      "道": 1343,
      "##道": 1344,
      "བ": 1345,
      "##བ": 1346,
      "##ө": 1347,
      "დ": 1348,
      "##დ": 1349,
      "##ُ": 1350,
      "น": 1351,
      "##น": 1352,
      "##қ": 1353,
      "ầ": 1354,
      "##ầ": 1355,
      "ả": 1356,
      "##ả": 1357,
      "ッ": 1358,
      "##ッ": 1359,
      "三": 1360,
      "##三": 1361,
      "##Ñ": 1362,
      "海": 1363,
      "##海": 1364,
      "##¡": 1365,
      "##ब": 1366,
      "##ך": 1367,
      "ང": 1368,
      "##ང": 1369,
      "##È": 1370,
      "མ": 1371,
      "##མ": 1372,
      "##ֲ": 1373,
      "##ϊ": 1374,
      "一": 1375,
      "##一": 1376,
      "##բ": 1377,
      "##ǐ": 1378,
      "##ħ": 1379,
      "##մ": 1380,
      "♥": 1381,
      "##♥": 1382,
      "##¬": 1383,
      "##Ò": 1384,
      "ト": 1385,
      "##ト": 1386,
      "##ئ": 1387,
      "##پ": 1388,
      "##ŕ": 1389,
      "式": 1390,
      "ර": 1391,
      "##式": 1392,
      "්": 1393,
      "გ": 1394,
      "ก": 1395,
      "##გ": 1396,
      "↑": 1397,
      "##↑": 1398,
      "ง": 1399,
      "ხ": 1400,
      "##ხ": 1401,
      "ช": 1402,
      "隊": 1403,
      "##隊": 1404,
      "ὶ": 1405,
      "##ὶ": 1406,
      "ῆ": 1407,
      "##ῆ": 1408,
      "ア": 1409,
      "##ア": 1410,
      "##च": 1411,
      "ด": 1412,
      "ต": 1413,
      "##ء": 1414,
      "ท": 1415,
      "##ध": 1416,
      "タ": 1417,
      "บ": 1418,
      "##タ": 1419,
      "##ْ": 1420,
      "ṇ": 1421,
      "พ": 1422,
      "##ṇ": 1423,
      "##ض": 1424,
      "ม": 1425,
      "ย": 1426,
      "##ү": 1427,
      "##ʒ": 1428,
      "ล": 1429,
      "ว": 1430,
      "##Ā": 1431,
      "კ": 1432,
      "ส": 1433,
      "ห": 1434,
      "##კ": 1435,
      "อ": 1436,
      "⇒": 1437,
      "##⇒": 1438,
      "ะ": 1439,
      "ั": 1440,
      "##ġ": 1441,
      "州": 1442,
      "ิ": 1443,
      "ี": 1444,
      "##州": 1445,
      "##ķ": 1446,
      "ุ": 1447,
      "##अ": 1448,
      "ན": 1449,
      "เ": 1450,
      "##ན": 1451,
      "マ": 1452,
      "##マ": 1453,
      "ὐ": 1454,
      "##ὐ": 1455,
      "田": 1456,
      "##田": 1457,
      "##র": 1458,
      "王": 1459,
      "##王": 1460,
      "##ʊ": 1461,
      "文": 1462,
      "##文": 1463,
      "人": 1464,
      "##人": 1465,
      "⅓": 1466,
      "##⅓": 1467,
      "##ष": 1468,
      "ộ": 1469,
      "##ộ": 1470,
      "上": 1471,
      "##上": 1472,
      "།": 1473,
      "##ण": 1474,
      "太": 1475,
      "ཆ": 1476,
      "ད": 1477,
      "##太": 1478,
      "པ": 1479,
      "##ད": 1480,
      "##भ": 1481,
      "東": 1482,
      "##東": 1483,
      "ལ": 1484,
      "南": 1485,
      "ི": 1486,
      "ེ": 1487,
      "##南": 1488,
      "##լ": 1489,
      "##ม": 1490,
      "ྱ": 1491,
      "ὁ": 1492,
      "##ὁ": 1493,
      "ტ": 1494,
      "##ტ": 1495,
      "ἰ": 1496,
      "##ἰ": 1497,
      "ド": 1498,
      "##ド": 1499,
      "≡": 1500,
      "##≡": 1501,
      "##آ": 1502,
      "会": 1503,
      "##会": 1504,
      "##ท": 1505,
      "##ू": 1506,
      "寺": 1507,
      "##寺": 1508,
      "ロ": 1509,
      "##ロ": 1510,
      "●": 1511,
      "##●": 1512,
      "##க": 1513,
      "シ": 1514,
      "##シ": 1515,
      "မ": 1516,
      "神": 1517,
      "##神": 1518,
      "川": 1519,
      "##川": 1520,
      "カ": 1521,
      "##カ": 1522,
      "社": 1523,
      "##社": 1524,
      "西": 1525,
      "##西": 1526,
      "##̃": 1527,
      "##ி": 1528,
      "##ா": 1529,
      "##ս": 1530,
      "ქ": 1531,
      "ိ": 1532,
      "##ქ": 1533,
      "ု": 1534,
      "##ट": 1535,
      "##ர": 1536,
      "█": 1537,
      "##█": 1538,
      "##ƒ": 1539,
      "##্": 1540,
      "##ʼ": 1541,
      "်": 1542,
      "##گ": 1543,
      "##်": 1544,
      "い": 1545,
      "##い": 1546,
      "皇": 1547,
      "##皇": 1548,
      "##ظ": 1549,
      "##ི": 1550,
      "##ེ": 1551,
      "安": 1552,
      "##安": 1553,
      "明": 1554,
      "##明": 1555,
      "##Ə": 1556,
      "≠": 1557,
      "##≠": 1558,
      "キ": 1559,
      "##キ": 1560,
      "##ก": 1561,
      "##ث": 1562,
      "北": 1563,
      "##北": 1564,
      "##ย": 1565,
      "##Ξ": 1566,
      "##Â": 1567,
      "京": 1568,
      "##京": 1569,
      "ზ": 1570,
      "##ি": 1571,
      "##ذ": 1572,
      "戦": 1573,
      "##戦": 1574,
      "##ལ": 1575,
      "行": 1576,
      "##行": 1577,
      "漢": 1578,
      "##漢": 1579,
      "國": 1580,
      "##國": 1581,
      "##ђ": 1582,
      "√": 1583,
      "ფ": 1584,
      "##√": 1585,
      "##อ": 1586,
      "金": 1587,
      "შ": 1588,
      "##金": 1589,
      "ị": 1590,
      "ძ": 1591,
      "##ị": 1592,
      "##͡": 1593,
      "平": 1594,
      "##平": 1595,
      "ジ": 1596,
      "##ジ": 1597,
      "##ம": 1598,
      "城": 1599,
      "##城": 1600,
      "##ิ": 1601,
      "長": 1602,
      "##長": 1603,
      "高": 1604,
      "##高": 1605,
      "##ძ": 1606,
      "주": 1607,
      "##주": 1608,
      "##เ": 1609,
      "り": 1610,
      "##り": 1611,
      "##ہ": 1612,
      "学": 1613,
      "##学": 1614,
      "##ʁ": 1615,
      "空": 1616,
      "##空": 1617,
      "ọ": 1618,
      "##ọ": 1619,
      "도": 1620,
      "##도": 1621,
      "小": 1622,
      "ḍ": 1623,
      "##小": 1624,
      "コ": 1625,
      "##コ": 1626,
      "Ḥ": 1627,
      "##შ": 1628,
      "新": 1629,
      "##新": 1630,
      "##ɡ": 1631,
      "##ʾ": 1632,
      "ナ": 1633,
      "ṃ": 1634,
      "##ナ": 1635,
      "ṛ": 1636,
      "ố": 1637,
      "##ố": 1638,
      "和": 1639,
      "##和": 1640,
      "##Έ": 1641,
      "##த": 1642,
      "##Қ": 1643,
      "⅔": 1644,
      "##⅔": 1645,
      "##Ț": 1646,
      "機": 1647,
      "ấ": 1648,
      "##機": 1649,
      "##ี": 1650,
      "##Հ": 1651,
      "家": 1652,
      "ậ": 1653,
      "##家": 1654,
      "法": 1655,
      "##法": 1656,
      "##ส": 1657,
      "##ྱ": 1658,
      "手": 1659,
      "##手": 1660,
      "オ": 1661,
      "##オ": 1662,
      "##ṛ": 1663,
      "ề": 1664,
      "艦": 1665,
      "##艦": 1666,
      "##พ": 1667,
      "花": 1668,
      "##花": 1669,
      "ὸ": 1670,
      "##ὸ": 1671,
      "##Ð": 1672,
      "フ": 1673,
      "##フ": 1674,
      "##ũ": 1675,
      "##ׂ": 1676,
      "##Õ": 1677,
      "・": 1678,
      "##・": 1679,
      "한": 1680,
      "##한": 1681,
      "武": 1682,
      "##武": 1683,
      "ウ": 1684,
      "ụ": 1685,
      "##ウ": 1686,
      "ủ": 1687,
      "##ั": 1688,
      "ứ": 1689,
      "江": 1690,
      "##江": 1691,
      "木": 1692,
      "##木": 1693,
      "ỳ": 1694,
      "##ง": 1695,
      "##ɨ": 1696,
      "##ʰ": 1697,
      "##ủ": 1698,
      "ἄ": 1699,
      "##ड": 1700,
      "##ম": 1701,
      "ἡ": 1702,
      "##ุ": 1703,
      "ニ": 1704,
      "ἱ": 1705,
      "##ニ": 1706,
      "##Ψ": 1707,
      "宗": 1708,
      "##宗": 1709,
      "##Œ": 1710,
      "ὰ": 1711,
      "##ứ": 1712,
      "ὴ": 1713,
      "部": 1714,
      "##部": 1715,
      "##Ţ": 1716,
      "##Є": 1717,
      "し": 1718,
      "##し": 1719,
      "##པ": 1720,
      "ん": 1721,
      "##ん": 1722,
      "↓": 1723,
      "##↓": 1724,
      "##ɐ": 1725,
      "‟": 1726,
      "チ": 1727,
      "##チ": 1728,
      "##Ό": 1729,
      "公": 1730,
      "##公": 1731,
      "##ზ": 1732,
      "代": 1733,
      "##代": 1734,
      "二": 1735,
      "##二": 1736,
      "生": 1737,
      "##生": 1738,
      "##ล": 1739,
      "郎": 1740,
      "##郎": 1741,
      "野": 1742,
      "##野": 1743,
      "##ḍ": 1744,
      "株": 1745,
      "##株": 1746,
      "♭": 1747,
      "##♭": 1748,
      "字": 1749,
      "##字": 1750,
      "名": 1751,
      "##名": 1752,
      "水": 1753,
      "##水": 1754,
      "##ќ": 1755,
      "##ု": 1756,
      "区": 1757,
      "##区": 1758,
      "##վ": 1759,
      "##ấ": 1760,
      "ノ": 1761,
      "##ノ": 1762,
      "##Љ": 1763,
      "##ব": 1764,
      "시": 1765,
      "##시": 1766,
      "김": 1767,
      "##김": 1768,
      "李": 1769,
      "##李": 1770,
      "##್": 1771,
      "##ন": 1772,
      "##ң": 1773,
      "##‟": 1774,
      "帝": 1775,
      "##帝": 1776,
      "十": 1777,
      "##十": 1778,
      "##ἡ": 1779,
      "バ": 1780,
      "##バ": 1781,
      "##ĺ": 1782,
      "##ἄ": 1783,
      "ブ": 1784,
      "##ブ": 1785,
      "대": 1786,
      "##대": 1787,
      "##џ": 1788,
      "林": 1789,
      "##林": 1790,
      "グ": 1791,
      "##グ": 1792,
      "##॥": 1793,
      "##ว": 1794,
      "地": 1795,
      "##地": 1796,
      "##ʲ": 1797,
      "##چ": 1798,
      "##්": 1799,
      "な": 1800,
      "##な": 1801,
      "##บ": 1802,
      "レ": 1803,
      "##レ": 1804,
      "原": 1805,
      "##原": 1806,
      "治": 1807,
      "##治": 1808,
      "語": 1809,
      "##語": 1810,
      "##Џ": 1811,
      "白": 1812,
      "##白": 1813,
      "##ল": 1814,
      "##།": 1815,
      "ム": 1816,
      "##ム": 1817,
      "ガ": 1818,
      "##ガ": 1819,
      "##ṃ": 1820,
      "龍": 1821,
      "##龍": 1822,
      "正": 1823,
      "##正": 1824,
      "##़": 1825,
      "##ப": 1826,
      "⋅": 1827,
      "古": 1828,
      "##古": 1829,
      "る": 1830,
      "##る": 1831,
      "う": 1832,
      "##う": 1833,
      "##ғ": 1834,
      "##ĩ": 1835,
      "##ด": 1836,
      "ま": 1837,
      "##ま": 1838,
      "선": 1839,
      "##선": 1840,
      "##Ḥ": 1841,
      "町": 1842,
      "##町": 1843,
      "##գ": 1844,
      "##ै": 1845,
      "##ு": 1846,
      "##ะ": 1847,
      "テ": 1848,
      "##テ": 1849,
      "국": 1850,
      "##국": 1851,
      "司": 1852,
      "##司": 1853,
      "五": 1854,
      "##五": 1855,
      "民": 1856,
      "##民": 1857,
      "산": 1858,
      "##산": 1859,
      "九": 1860,
      "##九": 1861,
      "少": 1862,
      "##少": 1863,
      "이": 1864,
      "##이": 1865,
      "元": 1866,
      "##元": 1867,
      "##Ֆ": 1868,
      "##ὰ": 1869,
      "##ფ": 1870,
      "女": 1871,
      "##女": 1872,
      "##¢": 1873,
      "石": 1874,
      "##石": 1875,
      "軍": 1876,
      "##軍": 1877,
      "##ὴ": 1878,
      "プ": 1879,
      "##プ": 1880,
      "강": 1881,
      "##강": 1882,
      "##ɾ": 1883,
      "河": 1884,
      "##河": 1885,
      "##Ђ": 1886,
      "##ཆ": 1887,
      "き": 1888,
      "##き": 1889,
      "조": 1890,
      "##조": 1891,
      "下": 1892,
      "##下": 1893,
      "##¥": 1894,
      "四": 1895,
      "##四": 1896,
      "##ậ": 1897,
      "##ে": 1898,
      "立": 1899,
      "##立": 1900,
      "##ụ": 1901,
      "み": 1902,
      "##み": 1903,
      "##¿": 1904,
      "##΄": 1905,
      "사": 1906,
      "##사": 1907,
      "兵": 1908,
      "##兵": 1909,
      "お": 1910,
      "か": 1911,
      "が": 1912,
      "ィ": 1913,
      "##ィ": 1914,
      "佐": 1915,
      "##佐": 1916,
      "##ช": 1917,
      "メ": 1918,
      "##メ": 1919,
      "ゴ": 1920,
      "##ゴ": 1921,
      "##Ū": 1922,
      "##ख": 1923,
      "航": 1924,
      "##航": 1925,
      "##आ": 1926,
      "##ರ": 1927,
      "##դ": 1928,
      "##ச": 1929,
      "##Ô": 1930,
      "た": 1931,
      "ュ": 1932,
      "##ュ": 1933,
      "村": 1934,
      "##村": 1935,
      "パ": 1936,
      "##パ": 1937,
      "##ட": 1938,
      "風": 1939,
      "と": 1940,
      "##風": 1941,
      "ダ": 1942,
      "##ダ": 1943,
      "##た": 1944,
      "##ỳ": 1945,
      "方": 1946,
      "##方": 1947,
      "##⋅": 1948,
      "心": 1949,
      "##心": 1950,
      "##か": 1951,
      "門": 1952,
      "##門": 1953,
      "##Ħ": 1954,
      "##ต": 1955,
      "##ห": 1956,
      "##が": 1957,
      "政": 1958,
      "##政": 1959,
      "吉": 1960,
      "##吉": 1961,
      "周": 1962,
      "##周": 1963,
      "##थ": 1964,
      "##ề": 1965,
      "仁": 1966,
      "##仁": 1967,
      "松": 1968,
      "##松": 1969,
      "##お": 1970,
      "##ර": 1971,
      "##ἱ": 1972,
      "省": 1973,
      "##省": 1974,
      "月": 1975,
      "##月": 1976,
      "時": 1977,
      "##時": 1978,
      "県": 1979,
      "##県": 1980,
      "ハ": 1981,
      "##ハ": 1982,
      "モ": 1983,
      "##モ": 1984,
      "ケ": 1985,
      "##ケ": 1986,
      "##ɣ": 1987,
      "##զ": 1988,
      "氏": 1989,
      "##氏": 1990,
      "##Ө": 1991,
      "##ृ": 1992,
      "##প": 1993,
      "##ా": 1994,
      "##ိ": 1995,
      "成": 1996,
      "##成": 1997,
      "##と": 1998,
      "合": 1999,
      "##合": 2000,
      "音": 2001,
      "##音": 2002,
      "##ɲ": 2003,
      "##ক": 2004,
      "信": 2005,
      "##信": 2006,
      "##్": 2007,
      "##Ս": 2008,
      "##မ": 2009,
      "##ie": 2010,
      "##st": 2011,
      "##ch": 2012,
      "##ни": 2013,
      "##an": 2014,
      "##ст": 2015,
      "##en": 2016,
      "##on": 2017,
      "##ра": 2018,
      "на": 2019,
      "##ra": 2020,
      "##ow": 2021,
      "##то": 2022,
      "po": 2023,
      "##sk": 2024,
      "##ов": 2025,
      "##ен": 2026,
      "##ro": 2027,
      "##та": 2028,
      "##al": 2029,
      "##er": 2030,
      "##ре": 2031,
      "na": 2032,
      "##ри": 2033,
      "##ni": 2034,
      "##ov": 2035,
      "##ли": 2036,
      "##на": 2037,
      "##ze": 2038,
      "##ar": 2039,
      "##но": 2040,
      "##те": 2041,
      "##ва": 2042,
      "##ní": 2043,
      "##le": 2044,
      "##at": 2045,
      "по": 2046,
      "##in": 2047,
      "##ро": 2048,
      "##or": 2049,
      "##ск": 2050,
      "##la": 2051,
      "##cz": 2052,
      "je": 2053,
      "##ce": 2054,
      "##li": 2055,
      "##em": 2056,
      "##ou": 2057,
      "##od": 2058,
      "##ла": 2059,
      "do": 2060,
      "##ak": 2061,
      "##ле": 2062,
      "19": 2063,
      "##ał": 2064,
      "##ci": 2065,
      "##ti": 2066,
      "##zy": 2067,
      "##ku": 2068,
      "ro": 2069,
      "##ad": 2070,
      "за": 2071,
      "pr": 2072,
      "##ec": 2073,
      "##ти": 2074,
      "##да": 2075,
      "##ка": 2076,
      "##mi": 2077,
      "st": 2078,
      "от": 2079,
      "##ер": 2080,
      "##go": 2081,
      "##na": 2082,
      "se": 2083,
      "##ej": 2084,
      "##ци": 2085,
      "##ди": 2086,
      "za": 2087,
      "##ho": 2088,
      "##ka": 2089,
      "##ет": 2090,
      "##ed": 2091,
      "##го": 2092,
      "##no": 2093,
      "##ло": 2094,
      "##el": 2095,
      "ко": 2096,
      "##ów": 2097,
      "##ol": 2098,
      "##ан": 2099,
      "20": 2100,
      "##ny": 2101,
      "##во": 2102,
      "##ени": 2103,
      "##ię": 2104,
      "by": 2105,
      "##nie": 2106,
      "##ко": 2107,
      "##ль": 2108,
      "##ви": 2109,
      "##it": 2110,
      "##et": 2111,
      "##il": 2112,
      "##ми": 2113,
      "##ны": 2114,
      "př": 2115,
      "се": 2116,
      "##je": 2117,
      "pro": 2118,
      "##ia": 2119,
      "##tion": 2120,
      "od": 2121,
      "пре": 2122,
      "##es": 2123,
      "Sec": 2124,
      "Section": 2125,
      "##ck": 2126,
      "##ски": 2127,
      "##sz": 2128,
      "ob": 2129,
      "##om": 2130,
      "##ма": 2131,
      "##ru": 2132,
      "##ně": 2133,
      "не": 2134,
      "##zi": 2135,
      "##ne": 2136,
      "##не": 2137,
      "го": 2138,
      "wy": 2139,
      "kt": 2140,
      "##ор": 2141,
      "ра": 2142,
      "из": 2143,
      "##си": 2144,
      "про": 2145,
      "##ки": 2146,
      "##ty": 2147,
      "##ry": 2148,
      "##ob": 2149,
      "##га": 2150,
      "##ова": 2151,
      "до": 2152,
      "##ud": 2153,
      "##ek": 2154,
      "##ých": 2155,
      "##as": 2156,
      "##cj": 2157,
      "##де": 2158,
      "##ру": 2159,
      "##to": 2160,
      "##ся": 2161,
      "##сти": 2162,
      "##aj": 2163,
      "prze": 2164,
      "pod": 2165,
      "##ля": 2166,
      "##po": 2167,
      "##tu": 2168,
      "##ър": 2169,
      "##am": 2170,
      "się": 2171,
      "##lo": 2172,
      "со": 2173,
      "об": 2174,
      "##ме": 2175,
      "##по": 2176,
      "##ran": 2177,
      "##ist": 2178,
      "##ве": 2179,
      "##is": 2180,
      "##че": 2181,
      "##зи": 2182,
      "##iej": 2183,
      "##cy": 2184,
      "ка": 2185,
      "при": 2186,
      "##ost": 2187,
      "##ть": 2188,
      "##ско": 2189,
      "##ча": 2190,
      "##ния": 2191,
      "##ské": 2192,
      "200": 2193,
      "##rá": 2194,
      "vy": 2195,
      "##ła": 2196,
      "##мо": 2197,
      "##ki": 2198,
      "##па": 2199,
      "##ko": 2200,
      "roku": 2201,
      "##ści": 2202,
      "##ier": 2203,
      "##ski": 2204,
      "##за": 2205,
      "##dy": 2206,
      "##os": 2207,
      "##ста": 2208,
      "##ta": 2209,
      "##wi": 2210,
      "##ych": 2211,
      "##mu": 2212,
      "ре": 2213,
      "##owan": 2214,
      "##ší": 2215,
      "##wa": 2216,
      "##он": 2217,
      "##re": 2218,
      "##чи": 2219,
      "##dz": 2220,
      "jak": 2221,
      "##sta": 2222,
      "ne": 2223,
      "##ení": 2224,
      "##ub": 2225,
      "##cí": 2226,
      "##ach": 2227,
      "##ска": 2228,
      "##об": 2229,
      "во": 2230,
      "##ky": 2231,
      "##ар": 2232,
      "##ду": 2233,
      "##cie": 2234,
      "##се": 2235,
      "##ří": 2236,
      "##né": 2237,
      "##ym": 2238,
      "##ги": 2239,
      "##пи": 2240,
      "##ot": 2241,
      "roz": 2242,
      "nie": 2243,
      "##vě": 2244,
      "18": 2245,
      "201": 2246,
      "##ło": 2247,
      "##rze": 2248,
      "##ров": 2249,
      "##oj": 2250,
      "са": 2251,
      "##бо": 2252,
      "jed": 2253,
      "##сто": 2254,
      "##by": 2255,
      "##du": 2256,
      "##si": 2257,
      "да": 2258,
      "съ": 2259,
      "sp": 2260,
      "re": 2261,
      "##ем": 2262,
      "kter": 2263,
      "##лу": 2264,
      "##ová": 2265,
      "##ut": 2266,
      "tak": 2267,
      "##ech": 2268,
      "##ща": 2269,
      "##ego": 2270,
      "##gi": 2271,
      "де": 2272,
      "что": 2273,
      "##ак": 2274,
      "##id": 2275,
      "##ál": 2276,
      "##щи": 2277,
      "раз": 2278,
      "byl": 2279,
      "##ent": 2280,
      "##op": 2281,
      "си": 2282,
      "in": 2283,
      "##ali": 2284,
      "cz": 2285,
      "##cji": 2286,
      "##ur": 2287,
      "kon": 2288,
      "##un": 2289,
      "jako": 2290,
      "то": 2291,
      "##лед": 2292,
      "##мен": 2293,
      "##jí": 2294,
      "##же": 2295,
      "##ją": 2296,
      "##ca": 2297,
      "##ние": 2298,
      "##ство": 2299,
      "199": 2300,
      "##nia": 2301,
      "##wie": 2302,
      "##би": 2303,
      "##czy": 2304,
      "По": 2305,
      "##raz": 2306,
      "Po": 2307,
      "ve": 2308,
      "##sti": 2309,
      "##nych": 2310,
      "##ши": 2311,
      "##skie": 2312,
      "##ден": 2313,
      "##ez": 2314,
      "##ение": 2315,
      "##са": 2316,
      "##ту": 2317,
      "##us": 2318,
      "##ové": 2319,
      "##lá": 2320,
      "zá": 2321,
      "##пе": 2322,
      "под": 2323,
      "##im": 2324,
      "##vá": 2325,
      "##ść": 2326,
      "##um": 2327,
      "##ná": 2328,
      "##kt": 2329,
      "któ": 2330,
      "##ово": 2331,
      "to": 2332,
      "##ała": 2333,
      "ме": 2334,
      "##uje": 2335,
      "##va": 2336,
      "##za": 2337,
      "##ým": 2338,
      "ná": 2339,
      "##ще": 2340,
      "##ъл": 2341,
      "ми": 2342,
      "##жи": 2343,
      "pow": 2344,
      "##ств": 2345,
      "##ран": 2346,
      "те": 2347,
      "##ich": 2348,
      "##лен": 2349,
      "Na": 2350,
      "##vní": 2351,
      "pra": 2352,
      "##ví": 2353,
      "##ку": 2354,
      "##ul": 2355,
      "##cze": 2356,
      "##ения": 2357,
      "vý": 2358,
      "##00": 2359,
      "##de": 2360,
      "##гра": 2361,
      "мо": 2362,
      "##rod": 2363,
      "пред": 2364,
      "##ната": 2365,
      "##bo": 2366,
      "##up": 2367,
      "##ция": 2368,
      "St": 2369,
      "ма": 2370,
      "##ните": 2371,
      "roce": 2372,
      "przy": 2373,
      "##ного": 2374,
      "mo": 2375,
      "##ос": 2376,
      "##kow": 2377,
      "вы": 2378,
      "##ры": 2379,
      "##ове": 2380,
      "##ły": 2381,
      "##ani": 2382,
      "##mě": 2383,
      "##ят": 2384,
      "##ной": 2385,
      "бы": 2386,
      "jest": 2387,
      "##ции": 2388,
      "##жа": 2389,
      "##до": 2390,
      "##szy": 2391,
      "##ных": 2392,
      "ko": 2393,
      "ch": 2394,
      "##ick": 2395,
      "##tě": 2396,
      "На": 2397,
      "##rzy": 2398,
      "##sp": 2399,
      "##iem": 2400,
      "##ina": 2401,
      "os": 2402,
      "##ró": 2403,
      "##oval": 2404,
      "##da": 2405,
      "##сь": 2406,
      "##dě": 2407,
      "##хо": 2408,
      "##фи": 2409,
      "##ok": 2410,
      "##ého": 2411,
      "##ają": 2412,
      "##zie": 2413,
      "##ну": 2414,
      "sv": 2415,
      "op": 2416,
      "##wo": 2417,
      "##nej": 2418,
      "пе": 2419,
      "te": 2420,
      "##ře": 2421,
      "##fi": 2422,
      "ста": 2423,
      "##ży": 2424,
      "mě": 2425,
      "##тель": 2426,
      "##át": 2427,
      "##lu": 2428,
      "ok": 2429,
      "че": 2430,
      "li": 2431,
      "##zen": 2432,
      "przez": 2433,
      "##ът": 2434,
      "##kon": 2435,
      "##ska": 2436,
      "##era": 2437,
      "##łu": 2438,
      "##iejs": 2439,
      "wie": 2440,
      "##nik": 2441,
      "##iv": 2442,
      "##lov": 2443,
      "##рия": 2444,
      "##ря": 2445,
      "zost": 2446,
      "##ей": 2447,
      "##ap": 2448,
      "##mie": 2449,
      "##ства": 2450,
      "##ji": 2451,
      "##тра": 2452,
      "##rov": 2453,
      "##owi": 2454,
      "##ma": 2455,
      "##ri": 2456,
      "##тел": 2457,
      "##ур": 2458,
      "##ник": 2459,
      "##skiego": 2460,
      "##zna": 2461,
      "годи": 2462,
      "##sto": 2463,
      "##ня": 2464,
      "pří": 2465,
      "lat": 2466,
      "##nego": 2467,
      "##ron": 2468,
      "##iny": 2469,
      "##te": 2470,
      "spo": 2471,
      "##ца": 2472,
      "##chod": 2473,
      "##rz": 2474,
      "miejs": 2475,
      "let": 2476,
      "##ба": 2477,
      "##пу": 2478,
      "##niej": 2479,
      "15": 2480,
      "это": 2481,
      "##sa": 2482,
      "като": 2483,
      "ně": 2484,
      "но": 2485,
      "##lad": 2486,
      "##gra": 2487,
      "##му": 2488,
      "##ност": 2489,
      "##ním": 2490,
      "кото": 2491,
      "##тов": 2492,
      "sk": 2493,
      "ин": 2494,
      "##ови": 2495,
      "Пре": 2496,
      "##ład": 2497,
      "през": 2498,
      "##and": 2499,
      "##ale": 2500,
      "##ев": 2501,
      "ty": 2502,
      "##lem": 2503,
      "##ží": 2504,
      "při": 2505,
      "před": 2506,
      "сооб": 2507,
      "##nym": 2508,
      "##ена": 2509,
      "17": 2510,
      "##sze": 2511,
      "##ват": 2512,
      "Ch": 2513,
      "##из": 2514,
      "##ół": 2515,
      "##wó": 2516,
      "##owo": 2517,
      "##ana": 2518,
      "##res": 2519,
      "197": 2520,
      "##ala": 2521,
      "##ване": 2522,
      "##она": 2523,
      "кон": 2524,
      "му": 2525,
      "##mo": 2526,
      "##ało": 2527,
      "##owa": 2528,
      "##ba": 2529,
      "##ev": 2530,
      "##ną": 2531,
      "oraz": 2532,
      "##лю": 2533,
      "194": 2534,
      "ли": 2535,
      "##ský": 2536,
      "že": 2537,
      "въ": 2538,
      "гра": 2539,
      "##осси": 2540,
      "ком": 2541,
      "##ona": 2542,
      "##ycz": 2543,
      "пра": 2544,
      "бо": 2545,
      "sz": 2546,
      "##nost": 2547,
      "198": 2548,
      "##pra": 2549,
      "##ních": 2550,
      "##tí": 2551,
      "##sou": 2552,
      "16": 2553,
      "sou": 2554,
      "##pad": 2555,
      "##ém": 2556,
      "ze": 2557,
      "ви": 2558,
      "##ше": 2559,
      "##że": 2560,
      "##ter": 2561,
      "10": 2562,
      "##ii": 2563,
      "##ga": 2564,
      "de": 2565,
      "mi": 2566,
      "##ania": 2567,
      "dru": 2568,
      "##dzi": 2569,
      "##aw": 2570,
      "##est": 2571,
      "ве": 2572,
      "##owy": 2573,
      "##ři": 2574,
      "##vo": 2575,
      "12": 2576,
      "##ръ": 2577,
      "##ný": 2578,
      "Pol": 2579,
      "nej": 2580,
      "##ют": 2581,
      "##bi": 2582,
      "##ast": 2583,
      "##ara": 2584,
      "##со": 2585,
      "##ред": 2586,
      "##my": 2587,
      "##gu": 2588,
      "byla": 2589,
      "##ные": 2590,
      "##ется": 2591,
      "ос": 2592,
      "##ęp": 2593,
      "ча": 2594,
      "##нов": 2595,
      "##бе": 2596,
      "##став": 2597,
      "mu": 2598,
      "##av": 2599,
      "##led": 2600,
      "ale": 2601,
      "##жда": 2602,
      "##pi": 2603,
      "##mí": 2604,
      "sy": 2605,
      "##že": 2606,
      "##len": 2607,
      "gm": 2608,
      "##ały": 2609,
      "сво": 2610,
      "Ка": 2611,
      "##ony": 2612,
      "вре": 2613,
      "##ный": 2614,
      "##nu": 2615,
      "##owej": 2616,
      "##sy": 2617,
      "##any": 2618,
      "##вер": 2619,
      "##skiej": 2620,
      "miejsc": 2621,
      "къ": 2622,
      "##stęp": 2623,
      "jsou": 2624,
      "##men": 2625,
      "##ského": 2626,
      "##skim": 2627,
      "vz": 2628,
      "##owie": 2629,
      "##ты": 2630,
      "##про": 2631,
      "vě": 2632,
      "##ската": 2633,
      "zna": 2634,
      "14": 2635,
      "jeho": 2636,
      "kom": 2637,
      "##нии": 2638,
      "##anie": 2639,
      "##ал": 2640,
      "An": 2641,
      "##vy": 2642,
      "Mar": 2643,
      "года": 2644,
      "13": 2645,
      "sam": 2646,
      "poz": 2647,
      "##ly": 2648,
      "##пра": 2649,
      "##wy": 2650,
      "##bě": 2651,
      "##ing": 2652,
      "##след": 2653,
      "##тив": 2654,
      "##ční": 2655,
      "##olo": 2656,
      "Od": 2657,
      "##ství": 2658,
      "II": 2659,
      "ar": 2660,
      "##ето": 2661,
      "##vod": 2662,
      "##уд": 2663,
      "##ena": 2664,
      "##vět": 2665,
      "##ká": 2666,
      "##гу": 2667,
      "##чен": 2668,
      "##ole": 2669,
      "##he": 2670,
      "година": 2671,
      "nad": 2672,
      "##ierw": 2673,
      "##sko": 2674,
      "##lan": 2675,
      "196": 2676,
      "##ент": 2677,
      "##ab": 2678,
      "zd": 2679,
      "##nou": 2680,
      "##ке": 2681,
      "##ков": 2682,
      "##ской": 2683,
      "##az": 2684,
      "##ным": 2685,
      "##ím": 2686,
      "##кра": 2687,
      "vš": 2688,
      "##ował": 2689,
      "rod": 2690,
      "##кто": 2691,
      "##dzie": 2692,
      "ji": 2693,
      "##дин": 2694,
      "Fran": 2695,
      "та": 2696,
      "##lou": 2697,
      "фи": 2698,
      "jej": 2699,
      "który": 2700,
      "##чески": 2701,
      "##czą": 2702,
      "##ir": 2703,
      "##owych": 2704,
      "##кт": 2705,
      "ро": 2706,
      "##ności": 2707,
      "сообща": 2708,
      "11": 2709,
      "##owe": 2710,
      "##су": 2711,
      "193": 2712,
      "##cyj": 2713,
      "За": 2714,
      "През": 2715,
      "km": 2716,
      "бе": 2717,
      "nebo": 2718,
      "wz": 2719,
      "##istor": 2720,
      "##rop": 2721,
      "an": 2722,
      "##йски": 2723,
      "##ská": 2724,
      "##lí": 2725,
      "##ęd": 2726,
      "па": 2727,
      "##ají": 2728,
      "le": 2729,
      "Ко": 2730,
      "který": 2731,
      "mí": 2732,
      "##alo": 2733,
      "které": 2734,
      "##це": 2735,
      "##нски": 2736,
      "##стан": 2737,
      "##zí": 2738,
      "##bu": 2739,
      "##art": 2740,
      "##oru": 2741,
      "##ности": 2742,
      "##řed": 2743,
      "##бли": 2744,
      "##ствен": 2745,
      "si": 2746,
      "Ма": 2747,
      "nap": 2748,
      "##пре": 2749,
      "##ic": 2750,
      "##enie": 2751,
      "##ory": 2752,
      "naj": 2753,
      "##ního": 2754,
      "że": 2755,
      "co": 2756,
      "##ского": 2757,
      "##ълга": 2758,
      "##kov": 2759,
      "след": 2760,
      "##stav": 2761,
      "In": 2762,
      "195": 2763,
      "##ard": 2764,
      "##кс": 2765,
      "##тер": 2766,
      "for": 2767,
      "##аз": 2768,
      "##one": 2769,
      "##ków": 2770,
      "był": 2771,
      "Je": 2772,
      "##zą": 2773,
      "##ane": 2774,
      "стра": 2775,
      "##стра": 2776,
      "##дер": 2777,
      "##ků": 2778,
      "##дна": 2779,
      "##ers": 2780,
      "pot": 2781,
      "так": 2782,
      "##зна": 2783,
      "##oh": 2784,
      "Росси": 2785,
      "##chá": 2786,
      "pop": 2787,
      "##nosti": 2788,
      "##ery": 2789,
      "tra": 2790,
      "##ště": 2791,
      "pou": 2792,
      "##ха": 2793,
      "##ských": 2794,
      "##enia": 2795,
      "##ují": 2796,
      "##зва": 2797,
      "кра": 2798,
      "##čí": 2799,
      "##ád": 2800,
      "také": 2801,
      "Ми": 2802,
      "##лож": 2803,
      "##ление": 2804,
      "ди": 2805,
      "дол": 2806,
      "ру": 2807,
      "##ном": 2808,
      "##cja": 2809,
      "##skich": 2810,
      "latach": 2811,
      "##тели": 2812,
      "полу": 2813,
      "##лав": 2814,
      "##stra": 2815,
      "##kou": 2816,
      "##ezi": 2817,
      "Ro": 2818,
      "został": 2819,
      "би": 2820,
      "or": 2821,
      "Pod": 2822,
      "##ują": 2823,
      "##жду": 2824,
      "##atel": 2825,
      "##lav": 2826,
      "cel": 2827,
      "##ja": 2828,
      "##ada": 2829,
      "##ice": 2830,
      "##nika": 2831,
      "ав": 2832,
      "##nak": 2833,
      "192": 2834,
      "##вър": 2835,
      "которы": 2836,
      "až": 2837,
      "##ono": 2838,
      "##ag": 2839,
      "жи": 2840,
      "##стви": 2841,
      "##oje": 2842,
      "##яви": 2843,
      "##ných": 2844,
      "пере": 2845,
      "bud": 2846,
      "##ate": 2847,
      "##лей": 2848,
      "##рова": 2849,
      "##зу": 2850,
      "##uch": 2851,
      "дру": 2852,
      "są": 2853,
      "##for": 2854,
      "##нг": 2855,
      "mie": 2856,
      "##jší": 2857,
      "рас": 2858,
      "##мер": 2859,
      "##сте": 2860,
      "če": 2861,
      "##raj": 2862,
      "pierw": 2863,
      "ор": 2864,
      "##hy": 2865,
      "##пол": 2866,
      "рабо": 2867,
      "су": 2868,
      "##ено": 2869,
      "##gl": 2870,
      "##án": 2871,
      "##сту": 2872,
      "##ew": 2873,
      "##ша": 2874,
      "##stup": 2875,
      "woj": 2876,
      "##ct": 2877,
      "##лия": 2878,
      "191": 2879,
      "ни": 2880,
      "ni": 2881,
      "пи": 2882,
      "##мя": 2883,
      "zak": 2884,
      "пров": 2885,
      "##каза": 2886,
      "##стави": 2887,
      "dal": 2888,
      "##ене": 2889,
      "pů": 2890,
      "##se": 2891,
      "##дно": 2892,
      "##iu": 2893,
      "##eck": 2894,
      "сто": 2895,
      "част": 2896,
      "##dzt": 2897,
      "jego": 2898,
      "fil": 2899,
      "##сле": 2900,
      "##sob": 2901,
      "30": 2902,
      "##owego": 2903,
      "al": 2904,
      "##ката": 2905,
      "pol": 2906,
      "bylo": 2907,
      "То": 2908,
      "##val": 2909,
      "##ha": 2910,
      "##зо": 2911,
      "czę": 2912,
      "##ór": 2913,
      "##sku": 2914,
      "pa": 2915,
      "##ób": 2916,
      "##wor": 2917,
      "##ман": 2918,
      "Pro": 2919,
      "Pra": 2920,
      "##ato": 2921,
      "##ování": 2922,
      "dzi": 2923,
      "Мо": 2924,
      "tym": 2925,
      "##cia": 2926,
      "##ant": 2927,
      "##łów": 2928,
      "##iego": 2929,
      "##kem": 2930,
      "##лли": 2931,
      "##row": 2932,
      "##ąz": 2933,
      "его": 2934,
      "##ubli": 2935,
      "этом": 2936,
      "##стоя": 2937,
      "пла": 2938,
      "##klad": 2939,
      "##фор": 2940,
      "или": 2941,
      "сообщает": 2942,
      "vel": 2943,
      "##ve": 2944,
      "##вя": 2945,
      "Об": 2946,
      "##ojewó": 2947,
      "ст": 2948,
      "pos": 2949,
      "Ar": 2950,
      "Al": 2951,
      "##hu": 2952,
      "##leč": 2953,
      "##вет": 2954,
      "poli": 2955,
      "naz": 2956,
      "слу": 2957,
      "##eri": 2958,
      "dzie": 2959,
      "bez": 2960,
      "jedno": 2961,
      "gru": 2962,
      "čá": 2963,
      "##iel": 2964,
      "##mé": 2965,
      "##koli": 2966,
      "##ovan": 2967,
      "##цен": 2968,
      "wojewó": 2969,
      "##onie": 2970,
      "##циа": 2971,
      "sku": 2972,
      "##lub": 2973,
      "уча": 2974,
      "##лся": 2975,
      "все": 2976,
      "##ber": 2977,
      "##hod": 2978,
      "miejscowo": 2979,
      "té": 2980,
      "##žen": 2981,
      "##unk": 2982,
      "dla": 2983,
      "как": 2984,
      "czas": 2985,
      "произ": 2986,
      "око": 2987,
      "##ep": 2988,
      "rep": 2989,
      "ost": 2990,
      "przed": 2991,
      "první": 2992,
      "Со": 2993,
      "gmin": 2994,
      "##бы": 2995,
      "им": 2996,
      "##erv": 2997,
      "Wy": 2998,
      "##sza": 2999,
      "##ин": 3000,
      "само": 3001,
      "##bie": 3002,
      "для": 3003,
      "By": 3004,
      "##ел": 3005,
      "##вы": 3006,
      "##пор": 3007,
      "##dá": 3008,
      "##sty": 3009,
      "##ców": 3010,
      "##cké": 3011,
      "##ální": 3012,
      "stan": 3013,
      "##kaz": 3014,
      "##eb": 3015,
      "##uk": 3016,
      "##aty": 3017,
      "lub": 3018,
      "##ově": 3019,
      "województ": 3020,
      "има": 3021,
      "поли": 3022,
      "##cích": 3023,
      "ak": 3024,
      "także": 3025,
      "rów": 3026,
      "##wię": 3027,
      "bi": 3028,
      "která": 3029,
      "##прав": 3030,
      "##бу": 3031,
      "##žit": 3032,
      "ot": 3033,
      "##рика": 3034,
      "##ито": 3035,
      "##zem": 3036,
      "##мы": 3037,
      "гру": 3038,
      "##stwa": 3039,
      "##ното": 3040,
      "нача": 3041,
      "##aro": 3042,
      "##лов": 3043,
      "list": 3044,
      "хо": 3045,
      "##ды": 3046,
      "##czas": 3047,
      "##owany": 3048,
      "воз": 3049,
      "Do": 3050,
      "Ви": 3051,
      "##ver": 3052,
      "##хи": 3053,
      "par": 3054,
      "##szcz": 3055,
      "bý": 3056,
      "това": 3057,
      "##ili": 3058,
      "##erw": 3059,
      "##cen": 3060,
      "##ort": 3061,
      "##rů": 3062,
      "##lin": 3063,
      "##oby": 3064,
      "met": 3065,
      "##клю": 3066,
      "##зда": 3067,
      "zem": 3068,
      "##ovat": 3069,
      "милли": 3070,
      "ut": 3071,
      "Ob": 3072,
      "##вши": 3073,
      "Ko": 3074,
      "пар": 3075,
      "##last": 3076,
      "kole": 3077,
      "25": 3078,
      "##rad": 3079,
      "##чни": 3080,
      "##рен": 3081,
      "также": 3082,
      "##ależ": 3083,
      "##lat": 3084,
      "ad": 3085,
      "ак": 3086,
      "##łoż": 3087,
      "##rat": 3088,
      "пър": 3089,
      "най": 3090,
      "##ходи": 3091,
      "##rom": 3092,
      "##ек": 3093,
      "##зиден": 3094,
      "##гани": 3095,
      "##рат": 3096,
      "##ром": 3097,
      "ис": 3098,
      "##що": 3099,
      "##ami": 3100,
      "##gani": 3101,
      "##ług": 3102,
      "kdy": 3103,
      "##sky": 3104,
      "letech": 3105,
      "##cję": 3106,
      "России": 3107,
      "он": 3108,
      "##цион": 3109,
      "##рой": 3110,
      "##ari": 3111,
      "между": 3112,
      "##eč": 3113,
      "##ary": 3114,
      "Ma": 3115,
      "ma": 3116,
      "вой": 3117,
      "##ването": 3118,
      "które": 3119,
      "##ady": 3120,
      "druh": 3121,
      "Па": 3122,
      "ten": 3123,
      "##род": 3124,
      "##вест": 3125,
      "##ję": 3126,
      "сре": 3127,
      "##zd": 3128,
      "krá": 3129,
      "stud": 3130,
      "##гов": 3131,
      "##las": 3132,
      "##тор": 3133,
      "Sz": 3134,
      "##ться": 3135,
      "##ati": 3136,
      "##ята": 3137,
      "kde": 3138,
      "##ън": 3139,
      "##ový": 3140,
      "zp": 3141,
      "##olu": 3142,
      "##ierz": 3143,
      "ар": 3144,
      "##ále": 3145,
      "##ano": 3146,
      "##лото": 3147,
      "czy": 3148,
      "##się": 3149,
      "Le": 3150,
      "##vr": 3151,
      "##зы": 3152,
      "Са": 3153,
      "##oni": 3154,
      "##лко": 3155,
      "##гла": 3156,
      "##ное": 3157,
      "am": 3158,
      "##onu": 3159,
      "Če": 3160,
      "##anych": 3161,
      "##pod": 3162,
      "##pis": 3163,
      "##ova": 3164,
      "tr": 3165,
      "##лова": 3166,
      "##nice": 3167,
      "##ври": 3168,
      "však": 3169,
      "##pu": 3170,
      "dě": 3171,
      "##cu": 3172,
      "mezi": 3173,
      "##йто": 3174,
      "##ge": 3175,
      "##rę": 3176,
      "към": 3177,
      "##лись": 3178,
      "##so": 3179,
      "##edy": 3180,
      "další": 3181,
      "##вро": 3182,
      "При": 3183,
      "компа": 3184,
      "The": 3185,
      "които": 3186,
      "##ника": 3187,
      "znaj": 3188,
      "##áv": 3189,
      "##owym": 3190,
      "Li": 3191,
      "##ąd": 3192,
      "##ане": 3193,
      "bar": 3194,
      "##ilo": 3195,
      "##kań": 3196,
      "##ata": 3197,
      "около": 3198,
      "##owania": 3199,
      "zde": 3200,
      "byly": 3201,
      "mia": 3202,
      "wsp": 3203,
      "##niu": 3204,
      "году": 3205,
      "ur": 3206,
      "##бор": 3207,
      "##II": 3208,
      "poł": 3209,
      "okres": 3210,
      "##pa": 3211,
      "aut": 3212,
      "заяви": 3213,
      "вла": 3214,
      "##ении": 3215,
      "##oł": 3216,
      "##roj": 3217,
      "má": 3218,
      "stole": 3219,
      "Mi": 3220,
      "##nież": 3221,
      "świ": 3222,
      "##лан": 3223,
      "prac": 3224,
      "##бря": 3225,
      "ter": 3226,
      "##bud": 3227,
      "##gen": 3228,
      "ус": 3229,
      "##su": 3230,
      "был": 3231,
      "който": 3232,
      "##ách": 3233,
      "##ная": 3234,
      "##ления": 3235,
      "дан": 3236,
      "století": 3237,
      "##wod": 3238,
      "чи": 3239,
      "##tor": 3240,
      "Ме": 3241,
      "##sią": 3242,
      "Ин": 3243,
      "##rani": 3244,
      "##ových": 3245,
      "Бо": 3246,
      "##cą": 3247,
      "##zu": 3248,
      "##cych": 3249,
      "##при": 3250,
      "прави": 3251,
      "##red": 3252,
      "##жен": 3253,
      "společ": 3254,
      "ří": 3255,
      "pat": 3256,
      "##ność": 3257,
      "we": 3258,
      "##ството": 3259,
      "již": 3260,
      "##сно": 3261,
      "zn": 3262,
      "##war": 3263,
      "##ую": 3264,
      "##ун": 3265,
      "пер": 3266,
      "##мира": 3267,
      "ví": 3268,
      "##wiąz": 3269,
      "##czne": 3270,
      "##рии": 3271,
      "mod": 3272,
      "Та": 3273,
      "ку": 3274,
      "##kład": 3275,
      "##rem": 3276,
      "21": 3277,
      "jednak": 3278,
      "##дар": 3279,
      "##мерика": 3280,
      "тре": 3281,
      "##ний": 3282,
      "##uż": 3283,
      "##ila": 3284,
      "##ól": 3285,
      "##ход": 3286,
      "обра": 3287,
      "##eł": 3288,
      "##зе": 3289,
      "##ью": 3290,
      "##ného": 3291,
      "президен": 3292,
      "##тия": 3293,
      "##лось": 3294,
      "##им": 3295,
      "tě": 3296,
      "##ené": 3297,
      "##lé": 3298,
      "##пера": 3299,
      "miejscowość": 3300,
      "##ową": 3301,
      "również": 3302,
      "22": 3303,
      "##edług": 3304,
      "##нима": 3305,
      "въз": 3306,
      "##man": 3307,
      "##ologi": 3308,
      "##eny": 3309,
      "ба": 3310,
      "##pie": 3311,
      "време": 3312,
      "Mo": 3313,
      "190": 3314,
      "2010": 3315,
      "##stí": 3316,
      "Re": 3317,
      "##bí": 3318,
      "##chází": 3319,
      "##мет": 3320,
      "ле": 3321,
      "От": 3322,
      "##cer": 3323,
      "wię": 3324,
      "##рата": 3325,
      "##ято": 3326,
      "histor": 3327,
      "pi": 3328,
      "Ан": 3329,
      "органи": 3330,
      "Ро": 3331,
      "##liv": 3332,
      "regi": 3333,
      "##ými": 3334,
      "##skou": 3335,
      "##leg": 3336,
      "##ългар": 3337,
      "##bor": 3338,
      "##ския": 3339,
      "kap": 3340,
      "##ród": 3341,
      "##ero": 3342,
      "ka": 3343,
      "kraj": 3344,
      "powie": 3345,
      "##овы": 3346,
      "##mini": 3347,
      "##тся": 3348,
      "##чно": 3349,
      "буд": 3350,
      "2011": 3351,
      "Sp": 3352,
      "##ig": 3353,
      "##sce": 3354,
      "##cznie": 3355,
      "##den": 3356,
      "обла": 3357,
      "funk": 3358,
      "##вата": 3359,
      "други": 3360,
      "dv": 3361,
      "oby": 3362,
      "syst": 3363,
      "бу": 3364,
      "dy": 3365,
      "##теля": 3366,
      "След": 3367,
      "##ické": 3368,
      "1998": 3369,
      "ки": 3370,
      "24": 3371,
      "будет": 3372,
      "##tick": 3373,
      "##sie": 3374,
      "##má": 3375,
      "zač": 3376,
      "##стран": 3377,
      "Из": 3378,
      "##сс": 3379,
      "zw": 3380,
      "##co": 3381,
      "##sled": 3382,
      "wzgl": 3383,
      "##inu": 3384,
      "dí": 3385,
      "Za": 3386,
      "##há": 3387,
      "Kon": 3388,
      "ry": 3389,
      "##чва": 3390,
      "Ки": 3391,
      "##dzy": 3392,
      "##нист": 3393,
      "във": 3394,
      "##kter": 3395,
      "##zn": 3396,
      "дей": 3397,
      "тя": 3398,
      "##rál": 3399,
      "##py": 3400,
      "##яв": 3401,
      "росси": 3402,
      "##ům": 3403,
      "##cznych": 3404,
      "##kie": 3405,
      "##hem": 3406,
      "mat": 3407,
      "##ele": 3408,
      "2006": 3409,
      "mno": 3410,
      "##ody": 3411,
      "##kol": 3412,
      "##ruk": 3413,
      "osób": 3414,
      "##še": 3415,
      "tego": 3416,
      "Kar": 3417,
      "##nict": 3418,
      "##дения": 3419,
      "время": 3420,
      "##лове": 3421,
      "2009": 3422,
      "červ": 3423,
      "##ву": 3424,
      "мар": 3425,
      "##ką": 3426,
      "##ís": 3427,
      "##ět": 3428,
      "##rob": 3429,
      "##loven": 3430,
      "její": 3431,
      "Prze": 3432,
      "své": 3433,
      "lud": 3434,
      "Ба": 3435,
      "2008": 3436,
      "zap": 3437,
      "Ре": 3438,
      "##ském": 3439,
      "##фия": 3440,
      "Polsce": 3441,
      "##kiem": 3442,
      "sil": 3443,
      "##лько": 3444,
      "či": 3445,
      "pře": 3446,
      "##зова": 3447,
      "##ците": 3448,
      "prá": 3449,
      "Histor": 3450,
      "ży": 3451,
      "##логи": 3452,
      "położ": 3453,
      "над": 3454,
      "##ную": 3455,
      "23": 3456,
      "процен": 3457,
      "##lit": 3458,
      "stran": 3459,
      "2007": 3460,
      "ved": 3461,
      "спе": 3462,
      "##ment": 3463,
      "miesz": 3464,
      "град": 3465,
      "##stě": 3466,
      "ozna": 3467,
      "Jed": 3468,
      "##шен": 3469,
      "##тен": 3470,
      "ня": 3471,
      "skup": 3472,
      "пол": 3473,
      "До": 3474,
      "War": 3475,
      "Ра": 3476,
      "##ral": 3477,
      "##ście": 3478,
      "##rav": 3479,
      "##owane": 3480,
      "воен": 3481,
      "aby": 3482,
      "##публи": 3483,
      "три": 3484,
      "kil": 3485,
      "фон": 3486,
      "##dział": 3487,
      "##dí": 3488,
      "##ари": 3489,
      "znajdu": 3490,
      "##шение": 3491,
      "##нали": 3492,
      "obec": 3493,
      "##ге": 3494,
      "##rowad": 3495,
      "souč": 3496,
      "Ве": 3497,
      "zí": 3498,
      "##ším": 3499,
      "głów": 3500,
      "ду": 3501,
      "była": 3502,
      "##atu": 3503,
      "ex": 3504,
      "zv": 3505,
      "należ": 3506,
      "слова": 3507,
      "##oup": 3508,
      "##kę": 3509,
      "Ни": 3510,
      "Ру": 3511,
      "све": 3512,
      "##ovala": 3513,
      "##руд": 3514,
      "lid": 3515,
      "Pa": 3516,
      "##ovi": 3517,
      "organi": 3518,
      "tu": 3519,
      "of": 3520,
      "Ли": 3521,
      "sez": 3522,
      "##nię": 3523,
      "wieku": 3524,
      "##iz": 3525,
      "##ково": 3526,
      "cí": 3527,
      "##циона": 3528,
      "##ющи": 3529,
      "много": 3530,
      "##ява": 3531,
      "##лага": 3532,
      "##ław": 3533,
      "Во": 3534,
      "vět": 3535,
      "##št": 3536,
      "##iędzy": 3537,
      "##bli": 3538,
      "Не": 3539,
      "Си": 3540,
      "##lavní": 3541,
      "##cem": 3542,
      "##рак": 3543,
      "##nit": 3544,
      "после": 3545,
      "##ději": 3546,
      "Bo": 3547,
      "##ministra": 3548,
      "##стро": 3549,
      "##пер": 3550,
      "##форма": 3551,
      "##сен": 3552,
      "gen": 3553,
      "Ve": 3554,
      "##ód": 3555,
      "же": 3556,
      "něm": 3557,
      "Как": 3558,
      "##бра": 3559,
      "##óź": 3560,
      "авто": 3561,
      "##ust": 3562,
      "сред": 3563,
      "##zv": 3564,
      "pomo": 3565,
      "лет": 3566,
      "##owanie": 3567,
      "исто": 3568,
      "kul": 3569,
      "##анд": 3570,
      "mar": 3571,
      "челове": 3572,
      "##стре": 3573,
      "Те": 3574,
      "##nější": 3575,
      "rok": 3576,
      "извест": 3577,
      "##ině": 3578,
      "##ien": 3579,
      "prů": 3580,
      "##vatel": 3581,
      "28": 3582,
      "klub": 3583,
      "50": 3584,
      "Jan": 3585,
      "2012": 3586,
      "##graf": 3587,
      "##чение": 3588,
      "zes": 3589,
      "rze": 3590,
      "##рите": 3591,
      "##let": 3592,
      "Моск": 3593,
      "отме": 3594,
      "##вен": 3595,
      "##ord": 3596,
      "послед": 3597,
      "go": 3598,
      "##arzy": 3599,
      "##onych": 3600,
      "##ksz": 3601,
      "представи": 3602,
      "##szych": 3603,
      "##czę": 3604,
      "nich": 3605,
      "produ": 3606,
      "##ovou": 3607,
      "##ком": 3608,
      "og": 3609,
      "następ": 3610,
      "živ": 3611,
      "zm": 3612,
      "Pr": 3613,
      "##cza": 3614,
      "proto": 3615,
      "##ското": 3616,
      "přes": 3617,
      "jejich": 3618,
      "pak": 3619,
      "maj": 3620,
      "formu": 3621,
      "kont": 3622,
      "26": 3623,
      "Am": 3624,
      "##omu": 3625,
      "##нова": 3626,
      "од": 3627,
      "odp": 3628,
      "##čení": 3629,
      "долла": 3630,
      "sie": 3631,
      "были": 3632,
      "##ity": 3633,
      "която": 3634,
      "##цию": 3635,
      "##лиза": 3636,
      "prost": 3637,
      "dob": 3638,
      "##фе": 3639,
      "##nem": 3640,
      "##di": 3641,
      "объ": 3642,
      "того": 3643,
      "listop": 3644,
      "rodz": 3645,
      "##zemí": 3646,
      "vál": 3647,
      "osob": 3648,
      "27": 3649,
      "2004": 3650,
      "administra": 3651,
      "##том": 3652,
      "зна": 3653,
      "##cząt": 3654,
      "##коно": 3655,
      "със": 3656,
      "##ября": 3657,
      "US": 3658,
      "2005": 3659,
      "##íd": 3660,
      "mal": 3661,
      "Раз": 3662,
      "##лет": 3663,
      "189": 3664,
      "##lko": 3665,
      "##цията": 3666,
      "пу": 3667,
      "години": 3668,
      "Ва": 3669,
      "##cje": 3670,
      "тер": 3671,
      "българ": 3672,
      "Według": 3673,
      "##от": 3674,
      "##lick": 3675,
      "ci": 3676,
      "##ným": 3677,
      "##oz": 3678,
      "заявил": 3679,
      "##jící": 3680,
      "##adu": 3681,
      "skład": 3682,
      "##prav": 3683,
      "##ность": 3684,
      "##рита": 3685,
      "##ys": 3686,
      "##ců": 3687,
      "което": 3688,
      "kró": 3689,
      "##tá": 3690,
      "dział": 3691,
      "1990": 3692,
      "jin": 3693,
      "dost": 3694,
      "америка": 3695,
      "##ържа": 3696,
      "##znam": 3697,
      "několi": 3698,
      "##тре": 3699,
      "kolej": 3700,
      "powst": 3701,
      "##рон": 3702,
      "tur": 3703,
      "един": 3704,
      "prow": 3705,
      "wyd": 3706,
      "##kry": 3707,
      "##ША": 3708,
      "США": 3709,
      "##три": 3710,
      "име": 3711,
      "два": 3712,
      "##сы": 3713,
      "2014": 3714,
      "kor": 3715,
      "##ké": 3716,
      "pon": 3717,
      "##lep": 3718,
      "##owano": 3719,
      "mist": 3720,
      "at": 3721,
      "so": 3722,
      "##stą": 3723,
      "отк": 3724,
      "##bur": 3725,
      "той": 3726,
      "svět": 3727,
      "##ik": 3728,
      "##łon": 3729,
      "##ár": 3730,
      "словам": 3731,
      "stanowi": 3732,
      "глав": 3733,
      "##ierzch": 3734,
      "##nymi": 3735,
      "##ton": 3736,
      "##óźniej": 3737,
      "##lekt": 3738,
      "být": 3739,
      "jen": 3740,
      "##лась": 3741,
      "##йн": 3742,
      "Cz": 3743,
      "poj": 3744,
      "##сть": 3745,
      "też": 3746,
      "star": 3747,
      "Би": 3748,
      "резу": 3749,
      "##nes": 3750,
      "##мата": 3751,
      "Eu": 3752,
      "##th": 3753,
      "Ха": 3754,
      "##жение": 3755,
      "##ef": 3756,
      "вто": 3757,
      "Дж": 3758,
      "##рито": 3759,
      "##кон": 3760,
      "sw": 3761,
      "Br": 3762,
      "##кой": 3763,
      "##vé": 3764,
      "ты": 3765,
      "získ": 3766,
      "##jev": 3767,
      "##писа": 3768,
      "kla": 3769,
      "##ству": 3770,
      "dů": 3771,
      "Ди": 3772,
      "##дов": 3773,
      "##циаль": 3774,
      "miejscu": 3775,
      "##ут": 3776,
      "изда": 3777,
      "poč": 3778,
      "člen": 3779,
      "##pl": 3780,
      "2013": 3781,
      "##ников": 3782,
      "Але": 3783,
      "Се": 3784,
      "##wia": 3785,
      "##чки": 3786,
      "fin": 3787,
      "##ner": 3788,
      "##жет": 3789,
      "##ans": 3790,
      "##ového": 3791,
      "km²": 3792,
      "##ník": 3793,
      "##ską": 3794,
      "proti": 3795,
      "##orem": 3796,
      "została": 3797,
      "##itu": 3798,
      "pół": 3799,
      "ru": 3800,
      "тыся": 3801,
      "вер": 3802,
      "##бер": 3803,
      "##мей": 3804,
      "stal": 3805,
      "прове": 3806,
      "licz": 3807,
      "##ám": 3808,
      "было": 3809,
      "##гда": 3810,
      "##ният": 3811,
      "##днако": 3812,
      "##prowad": 3813,
      "1975": 3814,
      "##тин": 3815,
      "zamie": 3816,
      "##ela": 3817,
      "lit": 3818,
      "##ován": 3819,
      "vys": 3820,
      "##ved": 3821,
      "##станов": 3822,
      "war": 3823,
      "podob": 3824,
      "##nosi": 3825,
      "##rch": 3826,
      "полити": 3827,
      "vlá": 3828,
      "formula": 3829,
      "ho": 3830,
      "##les": 3831,
      "Съ": 3832,
      "##řen": 3833,
      "##нес": 3834,
      "000": 3835,
      "##простран": 3836,
      "чет": 3837,
      "względ": 3838,
      "Jak": 3839,
      "Bi": 3840,
      "запо": 3841,
      "##tem": 3842,
      "##ecz": 3843,
      "##czył": 3844,
      "swo": 3845,
      "obyvatel": 3846,
      "formula_": 3847,
      "##телей": 3848,
      "##съ": 3849,
      "dom": 3850,
      "##ней": 3851,
      "информа": 3852,
      "bě": 3853,
      "спо": 3854,
      "##кре": 3855,
      "Sa": 3856,
      "fran": 3857,
      "##rą": 3858,
      "ich": 3859,
      "2000": 3860,
      "##полож": 3861,
      "##óż": 3862,
      "Nie": 3863,
      "##ению": 3864,
      "kar": 3865,
      "29": 3866,
      "187": 3867,
      "188": 3868,
      "##мите": 3869,
      "stav": 3870,
      "##ając": 3871,
      "##noc": 3872,
      "##ская": 3873,
      "podle": 3874,
      "między": 3875,
      "##шения": 3876,
      "##łod": 3877,
      "##рио": 3878,
      "wi": 3879,
      "офи": 3880,
      "bo": 3881,
      "części": 3882,
      "##nienia": 3883,
      "##szyst": 3884,
      "##eli": 3885,
      "Ку": 3886,
      "##ńst": 3887,
      "ти": 3888,
      "występ": 3889,
      "40": 3890,
      "##ření": 3891,
      "Uni": 3892,
      "##zení": 3893,
      "##ган": 3894,
      "##mys": 3895,
      "zach": 3896,
      "##сов": 3897,
      "##рез": 3898,
      "později": 3899,
      "##лее": 3900,
      "nem": 3901,
      "##onal": 3902,
      "##ńskiego": 3903,
      "##лно": 3904,
      "##rzym": 3905,
      "теле": 3906,
      "Ka": 3907,
      "moż": 3908,
      "jeden": 3909,
      "obd": 3910,
      "организа": 3911,
      "Ji": 3912,
      "##ané": 3913,
      "##ników": 3914,
      "území": 3915,
      "##tury": 3916,
      "##byt": 3917,
      "##ван": 3918,
      "mů": 3919,
      "##miast": 3920,
      "##oto": 3921,
      "vlast": 3922,
      "uży": 3923,
      "##мина": 3924,
      "Ná": 3925,
      "##aniu": 3926,
      "kan": 3927,
      "##arz": 3928,
      "##мента": 3929,
      "použí": 3930,
      "Op": 3931,
      "долларов": 3932,
      "##chodzi": 3933,
      "gra": 3934,
      "##ский": 3935,
      "##waż": 3936,
      "##бур": 3937,
      "##ските": 3938,
      "##ются": 3939,
      "##owana": 3940,
      "##ącz": 3941,
      "původ": 3942,
      "31": 3943,
      "sm": 3944,
      "##če": 3945,
      "##вод": 3946,
      "ад": 3947,
      "rad": 3948,
      "III": 3949,
      "##сия": 3950,
      "##чита": 3951,
      "100": 3952,
      "##itel": 3953,
      "pan": 3954,
      "##szym": 3955,
      "##краи": 3956,
      "względem": 3957,
      "gdzie": 3958,
      "##gie": 3959,
      "##ęt": 3960,
      "później": 3961,
      "оста": 3962,
      "##ýchod": 3963,
      "Or": 3964,
      "Ар": 3965,
      "komp": 3966,
      "film": 3967,
      "##cej": 3968,
      "část": 3969,
      "wieś": 3970,
      "##vrop": 3971,
      "hod": 3972,
      "получи": 3973,
      "##жно": 3974,
      "praw": 3975,
      "##тата": 3976,
      "аг": 3977,
      "##труд": 3978,
      "rozpo": 3979,
      "##ради": 3980,
      "##пла": 3981,
      "##spě": 3982,
      "фор": 3983,
      "ang": 3984,
      "než": 3985,
      "##тро": 3986,
      "bra": 3987,
      "##do": 3988,
      "##nist": 3989,
      "Ně": 3990,
      "##ským": 3991,
      "##žení": 3992,
      "powiecie": 3993,
      "##kach": 3994,
      "nato": 3995,
      "##rot": 3996,
      "##skup": 3997,
      "##мент": 3998,
      "##пад": 3999,
      "##niku": 4000,
      "Мак": 4001,
      "рай": 4002,
      "##eni": 4003,
      "##анее": 4004,
      "##мени": 4005,
      "право": 4006,
      "##ставля": 4007,
      "zamiesz": 4008,
      "##чава": 4009,
      "разли": 4010,
      "##нистра": 4011,
      "2002": 4012,
      "zah": 4013,
      "##ском": 4014,
      "kam": 4015,
      "без": 4016,
      "toho": 4017,
      "było": 4018,
      "##nek": 4019,
      "вз": 4020,
      "##ces": 4021,
      "том": 4022,
      "##rab": 4023,
      "##лни": 4024,
      "elekt": 4025,
      "тех": 4026,
      "##hl": 4027,
      "##oli": 4028,
      "##дата": 4029,
      "##рабо": 4030,
      "реги": 4031,
      "plan": 4032,
      "administracyj": 4033,
      "##ující": 4034,
      "няко": 4035,
      "Par": 4036,
      "##cznej": 4037,
      "wł": 4038,
      "##zenia": 4039,
      "##azy": 4040,
      "##ont": 4041,
      "repre": 4042,
      "##emi": 4043,
      "##ence": 4044,
      "который": 4045,
      "##селение": 4046,
      "##зыва": 4047,
      "##au": 4048,
      "Бе": 4049,
      "##kami": 4050,
      "##пы": 4051,
      "##řej": 4052,
      "##ники": 4053,
      "##ными": 4054,
      "związ": 4055,
      "##дут": 4056,
      "cent": 4057,
      "Про": 4058,
      "im": 4059,
      "##mier": 4060,
      "Кон": 4061,
      "města": 4062,
      "svě": 4063,
      "##говор": 4064,
      "Евро": 4065,
      "województwie": 4066,
      "2001": 4067,
      "отно": 4068,
      "ní": 4069,
      "arch": 4070,
      "hlavní": 4071,
      "Sch": 4072,
      "Бълга": 4073,
      "stát": 4074,
      "уже": 4075,
      "яв": 4076,
      "Пе": 4077,
      "##раз": 4078,
      "сообщи": 4079,
      "gmina": 4080,
      "położona": 4081,
      "rů": 4082,
      "voj": 4083,
      "ostat": 4084,
      "sta": 4085,
      "prav": 4086,
      "гла": 4087,
      "##огра": 4088,
      "##osti": 4089,
      "XI": 4090,
      "wszyst": 4091,
      "помо": 4092,
      "syn": 4093,
      "сов": 4094,
      "vol": 4095,
      "vyt": 4096,
      "##wał": 4097,
      "##yd": 4098,
      "ke": 4099,
      "wynosi": 4100,
      "##poj": 4101,
      "ию": 4102,
      "kol": 4103,
      "##śród": 4104,
      "##тил": 4105,
      "##ński": 4106,
      "##чна": 4107,
      "##ospod": 4108,
      "Де": 4109,
      "##ките": 4110,
      "##ler": 4111,
      "##пис": 4112,
      "управ": 4113,
      "jednot": 4114,
      "България": 4115,
      "Ber": 4116,
      "изпол": 4117,
      "zat": 4118,
      "di": 4119,
      "уби": 4120,
      "##zw": 4121,
      "60": 4122,
      "##stan": 4123,
      "kat": 4124,
      "минист": 4125,
      "##онов": 4126,
      "мест": 4127,
      "##vi": 4128,
      "hrá": 4129,
      "##rodní": 4130,
      "##ily": 4131,
      "##szą": 4132,
      "свя": 4133,
      "##ání": 4134,
      "byli": 4135,
      "zalo": 4136,
      "Stan": 4137,
      "tej": 4138,
      "##alist": 4139,
      "powierzch": 4140,
      "##řel": 4141,
      "Pi": 4142,
      "zas": 4143,
      "първи": 4144,
      "##ций": 4145,
      "Ad": 4146,
      "cy": 4147,
      "##ine": 4148,
      "##aliz": 4149,
      "боль": 4150,
      "##stąpi": 4151,
      "вид": 4152,
      "век": 4153,
      "##дера": 4154,
      "которые": 4155,
      "##sah": 4156,
      "##lek": 4157,
      "ned": 4158,
      "##кти": 4159,
      "##ступ": 4160,
      "vznik": 4161,
      "##fa": 4162,
      "Wil": 4163,
      "их": 4164,
      "##гово": 4165,
      "##vají": 4166,
      "основ": 4167,
      "##gor": 4168,
      "##rej": 4169,
      "##рово": 4170,
      "tech": 4171,
      "zná": 4172,
      "член": 4173,
      "míst": 4174,
      "##ян": 4175,
      "##omi": 4176,
      "danych": 4177,
      "него": 4178,
      "##ži": 4179,
      "2003": 4180,
      "Вла": 4181,
      "186": 4182,
      "лю": 4183,
      "##цу": 4184,
      "вклю": 4185,
      "##лата": 4186,
      "##kra": 4187,
      "##čen": 4188,
      "##ida": 4189,
      "##wier": 4190,
      "##der": 4191,
      "##сите": 4192,
      "семей": 4193,
      "##nick": 4194,
      "Ос": 4195,
      "##мври": 4196,
      "##тери": 4197,
      "USA": 4198,
      "##дом": 4199,
      "##owała": 4200,
      "##iec": 4201,
      "Ге": 4202,
      "##бре": 4203,
      "##ęzy": 4204,
      "человек": 4205,
      "##rost": 4206,
      "były": 4207,
      "две": 4208,
      "miejsce": 4209,
      "##реди": 4210,
      "progra": 4211,
      "##цы": 4212,
      "##iná": 4213,
      "общи": 4214,
      "##of": 4215,
      "##лин": 4216,
      "části": 4217,
      "pouze": 4218,
      "##our": 4219,
      "##стов": 4220,
      "##ang": 4221,
      "róż": 4222,
      "##bum": 4223,
      "czerw": 4224,
      "става": 4225,
      "фина": 4226,
      "##cháze": 4227,
      "##cześ": 4228,
      "2015": 4229,
      "##eniu": 4230,
      "##пъл": 4231,
      "##льта": 4232,
      "##вар": 4233,
      "плани": 4234,
      "střed": 4235,
      "##кла": 4236,
      "##odu": 4237,
      "##děl": 4238,
      "med": 4239,
      "##кан": 4240,
      "nep": 4241,
      "##wiet": 4242,
      "##мия": 4243,
      "##aly": 4244,
      "vyh": 4245,
      "##lik": 4246,
      "době": 4247,
      "##či": 4248,
      "##kiw": 4249,
      "##cego": 4250,
      "czasie": 4251,
      "##бира": 4252,
      "Pet": 4253,
      "ва": 4254,
      "##ых": 4255,
      "##сни": 4256,
      "##łuż": 4257,
      "##мь": 4258,
      "##ений": 4259,
      "kie": 4260,
      "Ла": 4261,
      "Мар": 4262,
      "##дена": 4263,
      "учи": 4264,
      "##son": 4265,
      "dod": 4266,
      "##omo": 4267,
      "úč": 4268,
      "##зия": 4269,
      "уни": 4270,
      "##дия": 4271,
      "##ствия": 4272,
      "XV": 4273,
      "przeci": 4274,
      "##říklad": 4275,
      "mieszkań": 4276,
      "##czny": 4277,
      "wrze": 4278,
      "Bar": 4279,
      "живо": 4280,
      "Ty": 4281,
      "##ници": 4282,
      "##sch": 4283,
      "La": 4284,
      "dokon": 4285,
      "голя": 4286,
      "Лу": 4287,
      "począt": 4288,
      "může": 4289,
      "##ним": 4290,
      "##ктор": 4291,
      "Да": 4292,
      "авгу": 4293,
      "gminie": 4294,
      "тур": 4295,
      "působ": 4296,
      "inter": 4297,
      "ov": 4298,
      "явля": 4299,
      "##jed": 4300,
      "led": 4301,
      "руб": 4302,
      "край": 4303,
      "prof": 4304,
      "##wór": 4305,
      "##чина": 4306,
      "Ru": 4307,
      "це": 4308,
      "všech": 4309,
      "spoj": 4310,
      "zal": 4311,
      "##tr": 4312,
      "republi": 4313,
      "тысяч": 4314,
      "która": 4315,
      "газ": 4316,
      "##inou": 4317,
      "nau": 4318,
      "Фран": 4319,
      "mas": 4320,
      "Той": 4321,
      "80": 4322,
      "##wal": 4323,
      "Sy": 4324,
      "województwa": 4325,
      "##ować": 4326,
      "wrześ": 4327,
      "##ora": 4328,
      "##fika": 4329,
      "##nut": 4330,
      "##лна": 4331,
      "пока": 4332,
      "Ново": 4333,
      "##qu": 4334,
      "##нию": 4335,
      "май": 4336,
      "##cin": 4337,
      "Украи": 4338,
      "##сли": 4339,
      "##struk": 4340,
      "##łos": 4341,
      "dep": 4342,
      "zdoby": 4343,
      "може": 4344,
      "##kich": 4345,
      "бли": 4346,
      "##žel": 4347,
      "обе": 4348,
      "##szej": 4349,
      "##тура": 4350,
      "##imo": 4351,
      "lé": 4352,
      "##ůsob": 4353,
      "село": 4354,
      "miasta": 4355,
      "##стве": 4356,
      "chara": 4357,
      "ofi": 4358,
      "##тите": 4359,
      "New": 4360,
      "##йки": 4361,
      "##сси": 4362,
      "Vy": 4363,
      "bardz": 4364,
      "цен": 4365,
      "чем": 4366,
      "ta": 4367,
      "##50": 4368,
      "měst": 4369,
      "пло": 4370,
      "Mu": 4371,
      "zam": 4372,
      "Wie": 4373,
      "Го": 4374,
      "tele": 4375,
      "Kra": 4376,
      "stej": 4377,
      "##forma": 4378,
      "##god": 4379,
      "##рий": 4380,
      "бан": 4381,
      "кар": 4382,
      "Га": 4383,
      "por": 4384,
      "proje": 4385,
      "##zenie": 4386,
      "более": 4387,
      "cał": 4388,
      "świat": 4389,
      "##нето": 4390,
      "##телно": 4391,
      "##рав": 4392,
      "pl": 4393,
      "##kowo": 4394,
      "##ciu": 4395,
      "данным": 4396,
      "##jem": 4397,
      "тем": 4398,
      "##преде": 4399,
      "переда": 4400,
      "##дето": 4401,
      "spra": 4402,
      "##gn": 4403,
      "##седа": 4404,
      "побе": 4405,
      "##stoup": 4406,
      "her": 4407,
      "##obie": 4408,
      "para": 4409,
      "kra": 4410,
      "компании": 4411,
      "##щен": 4412,
      "podczas": 4413,
      "Joh": 4414,
      "##следова": 4415,
      "обви": 4416,
      "фев": 4417,
      "kost": 4418,
      "##ских": 4419,
      "współ": 4420,
      "prowad": 4421,
      "Zá": 4422,
      "Roz": 4423,
      "прод": 4424,
      "##върш": 4425,
      "също": 4426,
      "участи": 4427,
      "Lu": 4428,
      "##chy": 4429,
      "##tiv": 4430,
      "обще": 4431,
      "##roz": 4432,
      "více": 4433,
      "##ък": 4434,
      "Nej": 4435,
      "Ста": 4436,
      "no": 4437,
      "Wiel": 4438,
      "##etu": 4439,
      "Rad": 4440,
      "stá": 4441,
      "dvou": 4442,
      "игра": 4443,
      "##pły": 4444,
      "##wer": 4445,
      "Niem": 4446,
      "##kla": 4447,
      "natomiast": 4448,
      "hud": 4449,
      "##hou": 4450,
      "sr": 4451,
      "Francji": 4452,
      "##ень": 4453,
      "ок": 4454,
      "груп": 4455,
      "ves": 4456,
      "##tk": 4457,
      "tam": 4458,
      "vyu": 4459,
      "##me": 4460,
      "##ността": 4461,
      "##staw": 4462,
      "stycz": 4463,
      "Ten": 4464,
      "##skos": 4465,
      "##šení": 4466,
      "on": 4467,
      "této": 4468,
      "stron": 4469,
      "##eří": 4470,
      "##bit": 4471,
      "ново": 4472,
      "##van": 4473,
      "##roni": 4474,
      "разви": 4475,
      "čty": 4476,
      "##ństwa": 4477,
      "produk": 4478,
      "служ": 4479,
      "##зан": 4480,
      "květ": 4481,
      "##ěl": 4482,
      "pros": 4483,
      "Te": 4484,
      "опера": 4485,
      "агент": 4486,
      "sch": 4487,
      "висо": 4488,
      "результа": 4489,
      "tem": 4490,
      "Vý": 4491,
      "##ována": 4492,
      "бъ": 4493,
      "##щата": 4494,
      "преди": 4495,
      "##ind": 4496,
      "organiza": 4497,
      "dva": 4498,
      "Ju": 4499,
      "##stycz": 4500,
      "##пас": 4501,
      "mož": 4502,
      "##lim": 4503,
      "свои": 4504,
      "##šen": 4505,
      "миллиар": 4506,
      "##рес": 4507,
      "##aru": 4508,
      "##tał": 4509,
      "To": 4510,
      "już": 4511,
      "цент": 4512,
      "wal": 4513,
      "1945": 4514,
      "pís": 4515,
      "перио": 4516,
      "##ема": 4517,
      "сай": 4518,
      "##lasti": 4519,
      "##cou": 4520,
      "Фи": 4521,
      "Ja": 4522,
      "ist": 4523,
      "##kim": 4524,
      "fir": 4525,
      "stos": 4526,
      "##ností": 4527,
      "##zná": 4528,
      "##fer": 4529,
      "70": 4530,
      "zaj": 4531,
      "rek": 4532,
      "Naj": 4533,
      "gdy": 4534,
      "##amen": 4535,
      "##лище": 4536,
      "##ráv": 4537,
      "##žil": 4538,
      "против": 4539,
      "obdob": 4540,
      "##ница": 4541,
      "człon": 4542,
      "tylko": 4543,
      "ek": 4544,
      "posi": 4545,
      "##ném": 4546,
      "např": 4547,
      "Пър": 4548,
      "komu": 4549,
      "##дение": 4550,
      "была": 4551,
      "And": 4552,
      "##ckiego": 4553,
      "Ak": 4554,
      "wład": 4555,
      "niemie": 4556,
      "##we": 4557,
      "##ристи": 4558,
      "posta": 4559,
      "čas": 4560,
      "połud": 4561,
      "języ": 4562,
      "postav": 4563,
      "##судар": 4564,
      "##бург": 4565,
      "където": 4566,
      "##твер": 4567,
      "кри": 4568,
      "##гато": 4569,
      "br": 4570,
      "amer": 4571,
      "##вор": 4572,
      "Au": 4573,
      "ani": 4574,
      "Europ": 4575,
      "##lą": 4576,
      "##cją": 4577,
      "##řet": 4578,
      "##žně": 4579,
      "##čit": 4580,
      "##nd": 4581,
      "2016": 4582,
      "създа": 4583,
      "być": 4584,
      "znajduje": 4585,
      "##vý": 4586,
      "##тии": 4587,
      "ту": 4588,
      "##cznego": 4589,
      "##czes": 4590,
      "když": 4591,
      "##cha": 4592,
      "##vání": 4593,
      "zało": 4594,
      "několik": 4595,
      "##skosloven": 4596,
      "des": 4597,
      "##rou": 4598,
      "tvo": 4599,
      "##ември": 4600,
      "неско": 4601,
      "##kar": 4602,
      "област": 4603,
      "##hi": 4604,
      "och": 4605,
      "##рован": 4606,
      "##утбо": 4607,
      "##olí": 4608,
      "ps": 4609,
      "##ména": 4610,
      "##szcze": 4611,
      "##řez": 4612,
      "uni": 4613,
      "dow": 4614,
      "Jeho": 4615,
      "сотруд": 4616,
      "du": 4617,
      "powierzchni": 4618,
      "sever": 4619,
      "Jos": 4620,
      "##министра": 4621,
      "Mich": 4622,
      "ее": 4623,
      "dlou": 4624,
      "##кономи": 4625,
      "случа": 4626,
      "работа": 4627,
      "zespo": 4628,
      "1999": 4629,
      "Алекс": 4630,
      "война": 4631,
      "##дель": 4632,
      "государ": 4633,
      "velmi": 4634,
      "##ovní": 4635,
      "##cki": 4636,
      "##жения": 4637,
      "Ав": 4638,
      "publi": 4639,
      "еще": 4640,
      "##дей": 4641,
      "##зира": 4642,
      "суд": 4643,
      "##кова": 4644,
      "regionie": 4645,
      "национа": 4646,
      "Ba": 4647,
      "##ince": 4648,
      "прода": 4649,
      "##ствие": 4650,
      "##reś": 4651,
      "trze": 4652,
      "De": 4653,
      "##koło": 4654,
      "mus": 4655,
      "поз": 4656,
      "вър": 4657,
      "polity": 4658,
      "призна": 4659,
      "##rac": 4660,
      "##дж": 4661,
      "kultu": 4662,
      "##ický": 4663,
      "První": 4664,
      "pozost": 4665,
      "##ret": 4666,
      "kni": 4667,
      "##ził": 4668,
      "##тни": 4669,
      "##шего": 4670,
      "##цев": 4671,
      "##ten": 4672,
      "zamieszkiw": 4673,
      "которо": 4674,
      "Evrop": 4675,
      "##ren": 4676,
      "##dzier": 4677,
      "##мож": 4678,
      "Przy": 4679,
      "Ge": 4680,
      "##schod": 4681,
      "bit": 4682,
      "##руп": 4683,
      "należała": 4684,
      "##ář": 4685,
      "мя": 4686,
      "гражда": 4687,
      "##смо": 4688,
      "этого": 4689,
      "##nil": 4690,
      "##лект": 4691,
      "wojny": 4692,
      "up": 4693,
      "##вой": 4694,
      "mieszkańców": 4695,
      "Ros": 4696,
      "což": 4697,
      "както": 4698,
      "##rie": 4699,
      "przeciw": 4700,
      "##ros": 4701,
      "Ле": 4702,
      "##mieni": 4703,
      "##sed": 4704,
      "##роме": 4705,
      "##orzy": 4706,
      "wsi": 4707,
      "дву": 4708,
      "##rát": 4709,
      "##yw": 4710,
      "##eg": 4711,
      "кла": 4712,
      "##чения": 4713,
      "kry": 4714,
      "##cią": 4715,
      "například": 4716,
      "##tów": 4717,
      "##поль": 4718,
      "##łości": 4719,
      "někter": 4720,
      "##стров": 4721,
      "процентов": 4722,
      "дви": 4723,
      "Пи": 4724,
      "##лы": 4725,
      "##ium": 4726,
      "součas": 4727,
      "##ell": 4728,
      "##cym": 4729,
      "части": 4730,
      "иг": 4731,
      "umě": 4732,
      "wykon": 4733,
      "път": 4734,
      "##vin": 4735,
      "sty": 4736,
      "##сла": 4737,
      "lip": 4738,
      "sier": 4739,
      "případ": 4740,
      "##nicy": 4741,
      "90": 4742,
      "##гат": 4743,
      "div": 4744,
      "##ża": 4745,
      "##nic": 4746,
      "hra": 4747,
      "##ín": 4748,
      "##rum": 4749,
      "lok": 4750,
      "Александ": 4751,
      "Sam": 4752,
      "##пен": 4753,
      "zb": 4754,
      "##ledu": 4755,
      "dw": 4756,
      "tv": 4757,
      "album": 4758,
      "правитель": 4759,
      "růz": 4760,
      "hor": 4761,
      "grud": 4762,
      "nazw": 4763,
      "##ęsto": 4764,
      "##vat": 4765,
      "##ździer": 4766,
      "##циал": 4767,
      "dne": 4768,
      "##вший": 4769,
      "хи": 4770,
      "долж": 4771,
      "význam": 4772,
      "##pe": 4773,
      "my": 4774,
      "měl": 4775,
      "pre": 4776,
      "##ety": 4777,
      "Polski": 4778,
      "основа": 4779,
      "##ква": 4780,
      "футбо": 4781,
      "##gry": 4782,
      "##спе": 4783,
      "Гер": 4784,
      "##слу": 4785,
      "mają": 4786,
      "Ra": 4787,
      "##voj": 4788,
      "пов": 4789,
      "184": 4790,
      "wśród": 4791,
      "tedy": 4792,
      "##měr": 4793,
      "##льных": 4794,
      "##ond": 4795,
      "może": 4796,
      "tři": 4797,
      "##io": 4798,
      "дъл": 4799,
      "uli": 4800,
      "будут": 4801,
      "##точ": 4802,
      "boj": 4803,
      "##chu": 4804,
      "##ремен": 4805,
      "##her": 4806,
      "##žd": 4807,
      "větš": 4808,
      "##оне": 4809,
      "##дет": 4810,
      "vod": 4811,
      "paździer": 4812,
      "##держа": 4813,
      "##land": 4814,
      "lo": 4815,
      "пове": 4816,
      "nachází": 4817,
      "##stwo": 4818,
      "už": 4819,
      "zar": 4820,
      "tom": 4821,
      "východ": 4822,
      "##ktor": 4823,
      "období": 4824,
      "този": 4825,
      "Ал": 4826,
      "##lez": 4827,
      "depart": 4828,
      "system": 4829,
      "śred": 4830,
      "вси": 4831,
      "##ложи": 4832,
      "##tivní": 4833,
      "##łę": 4834,
      "##лови": 4835,
      "##ita": 4836,
      "созда": 4837,
      "##sí": 4838,
      "##нет": 4839,
      "##тур": 4840,
      "Хо": 4841,
      "##oń": 4842,
      "sze": 4843,
      "##jąc": 4844,
      "dvě": 4845,
      "##мпи": 4846,
      "##льной": 4847,
      "mili": 4848,
      "asi": 4849,
      "##nii": 4850,
      "gminę": 4851,
      "##čně": 4852,
      "рублей": 4853,
      "Влади": 4854,
      "счита": 4855,
      "евро": 4856,
      "nes": 4857,
      "##hled": 4858,
      "##tora": 4859,
      "##ография": 4860,
      "##lii": 4861,
      "cze": 4862,
      "##дел": 4863,
      "##порт": 4864,
      "której": 4865,
      "##nku": 4866,
      "sierp": 4867,
      "##lád": 4868,
      "##енера": 4869,
      "##ат": 4870,
      "którym": 4871,
      "##ecké": 4872,
      "pas": 4873,
      "##оби": 4874,
      "##едера": 4875,
      "##рията": 4876,
      "zab": 4877,
      "##чер": 4878,
      "Pierw": 4879,
      "##adem": 4880,
      "prob": 4881,
      "których": 4882,
      "президент": 4883,
      "##stawi": 4884,
      "rov": 4885,
      "ol": 4886,
      "##ełni": 4887,
      "##šlo": 4888,
      "września": 4889,
      "##iera": 4890,
      "koń": 4891,
      "##cent": 4892,
      "objev": 4893,
      "горо": 4894,
      "##šší": 4895,
      "##рук": 4896,
      "dub": 4897,
      "##zji": 4898,
      "tří": 4899,
      "obs": 4900,
      "интер": 4901,
      "##мир": 4902,
      "##gy": 4903,
      "##šel": 4904,
      "administracyjnie": 4905,
      "ран": 4906,
      "##br": 4907,
      "##льного": 4908,
      "slou": 4909,
      "##ток": 4910,
      "dol": 4911,
      "##ect": 4912,
      "##пита": 4913,
      "##čil": 4914,
      "tran": 4915,
      "##овете": 4916,
      "защи": 4917,
      "##evším": 4918,
      "vrch": 4919,
      "бор": 4920,
      "только": 4921,
      "pom": 4922,
      "започва": 4923,
      "процента": 4924,
      "##kle": 4925,
      "##ńskiej": 4926,
      "muzy": 4927,
      "##tyw": 4928,
      "##mian": 4929,
      "Lud": 4930,
      "##omet": 4931,
      "ještě": 4932,
      "północ": 4933,
      "##couz": 4934,
      "Narod": 4935,
      "##ъм": 4936,
      "##usz": 4937,
      "Интер": 4938,
      "##ząd": 4939,
      "Jest": 4940,
      "##mit": 4941,
      "ra": 4942,
      "##нение": 4943,
      "stat": 4944,
      "может": 4945,
      "cho": 4946,
      "##анди": 4947,
      "##ram": 4948,
      "np": 4949,
      "základ": 4950,
      "##end": 4951,
      "##eno": 4952,
      "они": 4953,
      "stop": 4954,
      "##zra": 4955,
      "страны": 4956,
      "##ste": 4957,
      "##tura": 4958,
      "##gą": 4959,
      "Sou": 4960,
      "##inie": 4961,
      "Ри": 4962,
      "стро": 4963,
      "##sá": 4964,
      "##ъж": 4965,
      "zad": 4966,
      "##čet": 4967,
      "pap": 4968,
      "około": 4969,
      "způsob": 4970,
      "заяв": 4971,
      "##ИА": 4972,
      "Ne": 4973,
      "##té": 4974,
      "##щу": 4975,
      "##ác": 4976,
      "##pan": 4977,
      "##лом": 4978,
      "wła": 4979,
      "##nat": 4980,
      "rozhod": 4981,
      "Вели": 4982,
      "západ": 4983,
      "##нер": 4984,
      "##sł": 4985,
      "zachod": 4986,
      "##ore": 4987,
      "##лено": 4988,
      "obce": 4989,
      "především": 4990,
      "##народ": 4991,
      "програ": 4992,
      "късно": 4993,
      "Ol": 4994,
      "##мена": 4995,
      "##мати": 4996,
      "##jął": 4997,
      "Jej": 4998,
      "profes": 4999,
      "Něm": 5000,
      "##bior": 5001,
      "##alu": 5002,
      "##вали": 5003,
      "ludności": 5004,
      "ше": 5005,
      "##пада": 5006,
      "##lon": 5007,
      "находи": 5008,
      "ud": 5009,
      "##owanych": 5010,
      "##пар": 5011,
      "соб": 5012,
      "##gii": 5013,
      "##оз": 5014,
      "##дол": 5015,
      "##ekt": 5016,
      "неза": 5017,
      "Пу": 5018,
      "##ular": 5019,
      "##чени": 5020,
      "тях": 5021,
      "Су": 5022,
      "kwiet": 5023,
      "##роны": 5024,
      "##версите": 5025,
      "##ických": 5026,
      "Све": 5027,
      "wraz": 5028,
      "##они": 5029,
      "typ": 5030,
      "##держ": 5031,
      "##eru": 5032,
      "РФ": 5033,
      "##fii": 5034,
      "1992": 5035,
      "приня": 5036,
      "35": 5037,
      "опреде": 5038,
      "cest": 5039,
      "га": 5040,
      "pły": 5041,
      "He": 5042,
      "фа": 5043,
      "představ": 5044,
      "udział": 5045,
      "##ovu": 5046,
      "##kové": 5047,
      "##тар": 5048,
      "однако": 5049,
      "ал": 5050,
      "систе": 5051,
      "biskup": 5052,
      "##нен": 5053,
      "##int": 5054,
      "края": 5055,
      "zwy": 5056,
      "pierwszy": 5057,
      "man": 5058,
      "произо": 5059,
      "поч": 5060,
      "Star": 5061,
      "Кар": 5062,
      "##вать": 5063,
      "дости": 5064,
      "##tych": 5065,
      "Бу": 5066,
      "zast": 5067,
      "финан": 5068,
      "Кроме": 5069,
      "уда": 5070,
      "група": 5071,
      "##нал": 5072,
      "Новости": 5073,
      "Че": 5074,
      "эти": 5075,
      "vá": 5076,
      "září": 5077,
      "Ost": 5078,
      "ла": 5079,
      "##gól": 5080,
      "##aliza": 5081,
      "##vol": 5082,
      "президента": 5083,
      "břez": 5084,
      "Ти": 5085,
      "ри": 5086,
      "##kud": 5087,
      "##ft": 5088,
      "##átku": 5089,
      "1997": 5090,
      "země": 5091,
      "руково": 5092,
      "##лена": 5093,
      "zawod": 5094,
      "sym": 5095,
      "##anii": 5096,
      "us": 5097,
      "российски": 5098,
      "kteří": 5099,
      "още": 5100,
      "така": 5101,
      "##фа": 5102,
      "##ху": 5103,
      "##нието": 5104,
      "cią": 5105,
      "##кола": 5106,
      "ха": 5107,
      "ско": 5108,
      "Tur": 5109,
      "миллионов": 5110,
      "XX": 5111,
      "##ńskim": 5112,
      "říj": 5113,
      "Se": 5114,
      "nez": 5115,
      "##sem": 5116,
      "staro": 5117,
      "една": 5118,
      "##кар": 5119,
      "##niki": 5120,
      "ab": 5121,
      "násled": 5122,
      "1996": 5123,
      "##тира": 5124,
      "##нения": 5125,
      "Сев": 5126,
      "##prac": 5127,
      "Bu": 5128,
      "##мон": 5129,
      "##ких": 5130,
      "oblasti": 5131,
      "##tok": 5132,
      "место": 5133,
      "##тат": 5134,
      "##czna": 5135,
      "rak": 5136,
      "##min": 5137,
      "##ранс": 5138,
      "the": 5139,
      "##ответ": 5140,
      "пор": 5141,
      "##šť": 5142,
      "Woj": 5143,
      "część": 5144,
      "население": 5145,
      "min": 5146,
      "##syt": 5147,
      "sí": 5148,
      "является": 5149,
      "války": 5150,
      "fak": 5151,
      "##ff": 5152,
      "Be": 5153,
      "stycznia": 5154,
      "Sta": 5155,
      "Historie": 5156,
      "druhé": 5157,
      "##гови": 5158,
      "##ograf": 5159,
      "жур": 5160,
      "nah": 5161,
      "wynosiła": 5162,
      "##nich": 5163,
      "##zysk": 5164,
      "##ion": 5165,
      "Пред": 5166,
      "РИА": 5167,
      "Gu": 5168,
      "използва": 5169,
      "##pas": 5170,
      "##виа": 5171,
      "reprezen": 5172,
      "smr": 5173,
      "Между": 5174,
      "##tal": 5175,
      "##ье": 5176,
      "##тно": 5177,
      "kości": 5178,
      "##wem": 5179,
      "##ůst": 5180,
      "1991": 5181,
      "##рази": 5182,
      "##ках": 5183,
      "svého": 5184,
      "обо": 5185,
      "##kty": 5186,
      "politi": 5187,
      "##ená": 5188,
      "##прави": 5189,
      "участ": 5190,
      "umo": 5191,
      "##ovy": 5192,
      "##form": 5193,
      "##nění": 5194,
      "au": 5195,
      "utwor": 5196,
      "согла": 5197,
      "włas": 5198,
      "чтобы": 5199,
      "##нием": 5200,
      "ези": 5201,
      "ан": 5202,
      "##wan": 5203,
      "##szego": 5204,
      "режи": 5205,
      "tzv": 5206,
      "typu": 5207,
      "##asto": 5208,
      "##til": 5209,
      "pam": 5210,
      "##вели": 5211,
      "Roku": 5212,
      "##cię": 5213,
      "голе": 5214,
      "##ckim": 5215,
      "śmier": 5216,
      "Он": 5217,
      "##тера": 5218,
      "##owarzy": 5219,
      "tý": 5220,
      "Mat": 5221,
      "##дени": 5222,
      "powi": 5223,
      "Сер": 5224,
      "Bud": 5225,
      "##20": 5226,
      "Ży": 5227,
      "trzy": 5228,
      "Mal": 5229,
      "фил": 5230,
      "mm": 5231,
      "kv": 5232,
      "##opis": 5233,
      "##ští": 5234,
      "##rach": 5235,
      "pozi": 5236,
      "okreś": 5237,
      "##róż": 5238,
      "##ститу": 5239,
      "zakoń": 5240,
      "държа": 5241,
      "##nutí": 5242,
      "##und": 5243,
      "##važ": 5244,
      "##fin": 5245,
      "американски": 5246,
      "Car": 5247,
      "##nim": 5248,
      "нау": 5249,
      "rych": 5250,
      "##ниче": 5251,
      "##дът": 5252,
      "##erou": 5253,
      "рес": 5254,
      "Historia": 5255,
      "není": 5256,
      "##вания": 5257,
      "během": 5258,
      "Север": 5259,
      "##вършва": 5260,
      "##gin": 5261,
      "##лаго": 5262,
      "Tak": 5263,
      "1994": 5264,
      "Wal": 5265,
      "San": 5266,
      "##čka": 5267,
      "spol": 5268,
      "##тие": 5269,
      "otrzym": 5270,
      "ссы": 5271,
      "##лий": 5272,
      "którego": 5273,
      "души": 5274,
      "##ležit": 5275,
      "Dal": 5276,
      "odby": 5277,
      "##rów": 5278,
      "##álu": 5279,
      "##кото": 5280,
      "obsz": 5281,
      "мал": 5282,
      "neby": 5283,
      "##жден": 5284,
      "##mis": 5285,
      "změ": 5286,
      "кор": 5287,
      "postup": 5288,
      "1989": 5289,
      "##ędu": 5290,
      "znajdują": 5291,
      "##nicz": 5292,
      "Bra": 5293,
      "rej": 5294,
      "swoj": 5295,
      "всички": 5296,
      "slu": 5297,
      "miał": 5298,
      "można": 5299,
      "намира": 5300,
      "##rist": 5301,
      "##рин": 5302,
      "součá": 5303,
      "czerwca": 5304,
      "россий": 5305,
      "##ré": 5306,
      "##bal": 5307,
      "tytu": 5308,
      "##cka": 5309,
      "връ": 5310,
      "спи": 5311,
      "##iemi": 5312,
      "##pij": 5313,
      "##losti": 5314,
      "innych": 5315,
      "##ступи": 5316,
      "##ích": 5317,
      "##nikiem": 5318,
      "##hla": 5319,
      "##ula": 5320,
      "##czenie": 5321,
      "комп": 5322,
      "##nią": 5323,
      "##star": 5324,
      "##siąż": 5325,
      "публи": 5326,
      "##ček": 5327,
      "##zev": 5328,
      "##лите": 5329,
      "smě": 5330,
      "jmé": 5331,
      "##джи": 5332,
      "##хов": 5333,
      "Vel": 5334,
      "gminy": 5335,
      "brat": 5336,
      "##бора": 5337,
      "място": 5338,
      "środ": 5339,
      "син": 5340,
      "Mon": 5341,
      "фак": 5342,
      "vyd": 5343,
      "##verz": 5344,
      "##юз": 5345,
      "ръ": 5346,
      "##per": 5347,
      "Ha": 5348,
      "dwa": 5349,
      "##ърт": 5350,
      "##atolick": 5351,
      "##rzost": 5352,
      "183": 5353,
      "IV": 5354,
      "##бле": 5355,
      "##řil": 5356,
      "##щер": 5357,
      "##ejména": 5358,
      "дъ": 5359,
      "Пет": 5360,
      "продъл": 5361,
      "##nými": 5362,
      "grudnia": 5363,
      "pě": 5364,
      "Въ": 5365,
      "Jana": 5366,
      "пр": 5367,
      "vytvo": 5368,
      "wyk": 5369,
      "##рей": 5370,
      "##над": 5371,
      "##lex": 5372,
      "##tek": 5373,
      "экс": 5374,
      "##szaw": 5375,
      "opera": 5376,
      "результате": 5377,
      "jedy": 5378,
      "решение": 5379,
      "město": 5380,
      "1939": 5381,
      "##ke": 5382,
      "##дор": 5383,
      "##entu": 5384,
      "занима": 5385,
      "##arié": 5386,
      "místo": 5387,
      "##ením": 5388,
      "##ši": 5389,
      "cm": 5390,
      "ша": 5391,
      "získal": 5392,
      "##тельно": 5393,
      "оп": 5394,
      "informa": 5395,
      "pla": 5396,
      "liczby": 5397,
      "дека": 5398,
      "velk": 5399,
      "##полага": 5400,
      "срещу": 5401,
      "francouz": 5402,
      "##чат": 5403,
      "##рая": 5404,
      "##ovali": 5405,
      "wyb": 5406,
      "maja": 5407,
      "##кта": 5408,
      "Маке": 5409,
      "miejscowości": 5410,
      "##czenia": 5411,
      "obchod": 5412,
      "##zię": 5413,
      "patří": 5414,
      "škol": 5415,
      "компания": 5416,
      "Obec": 5417,
      "##ново": 5418,
      "##ości": 5419,
      "доку": 5420,
      "администра": 5421,
      "##ствова": 5422,
      "##ované": 5423,
      "1995": 5424,
      "##ospodar": 5425,
      "posled": 5426,
      "несколько": 5427,
      "##пози": 5428,
      "zalud": 5429,
      "##řad": 5430,
      "##stru": 5431,
      "цър": 5432,
      "twor": 5433,
      "Ранее": 5434,
      "prostřed": 5435,
      "poprze": 5436,
      "lod": 5437,
      "ha": 5438,
      "##ovým": 5439,
      "клу": 5440,
      "##eral": 5441,
      "Разпростран": 5442,
      "##pol": 5443,
      "##сков": 5444,
      "gęsto": 5445,
      "##be": 5446,
      "Кра": 5447,
      "mají": 5448,
      "##daw": 5449,
      "##шел": 5450,
      "tím": 5451,
      "##виси": 5452,
      "селото": 5453,
      "##esti": 5454,
      "185": 5455,
      "ги": 5456,
      "##бан": 5457,
      "Warsza": 5458,
      "##oma": 5459,
      "##стъ": 5460,
      "необ": 5461,
      "dwó": 5462,
      "jí": 5463,
      "##mín": 5464,
      "Ком": 5465,
      "##aż": 5466,
      "проце": 5467,
      "szko": 5468,
      "##ото": 5469,
      "srp": 5470,
      "svou": 5471,
      "##ktu": 5472,
      "##фер": 5473,
      "České": 5474,
      "##enu": 5475,
      "##elem": 5476,
      "##więk": 5477,
      "bu": 5478,
      "##дон": 5479,
      "гово": 5480,
      "departamen": 5481,
      "rol": 5482,
      "назва": 5483,
      "##пан": 5484,
      "американ": 5485,
      "##erykań": 5486,
      "##работ": 5487,
      "##стри": 5488,
      "пресс": 5489,
      "дире": 5490,
      "поги": 5491,
      "1993": 5492,
      "##лон": 5493,
      "Му": 5494,
      "помощ": 5495,
      "семейство": 5496,
      "български": 5497,
      "##nici": 5498,
      "dro": 5499,
      "Her": 5500,
      "##ckiej": 5501,
      "##nicze": 5502,
      "zejména": 5503,
      "##říd": 5504,
      "We": 5505,
      "Rob": 5506,
      "награ": 5507,
      "koncer": 5508,
      "##itul": 5509,
      "##arze": 5510,
      "##esz": 5511,
      "čt": 5512,
      "##кри": 5513,
      "##cił": 5514,
      "области": 5515,
      "кни": 5516,
      "##ługo": 5517,
      "października": 5518,
      "poté": 5519,
      "bardzo": 5520,
      "##чь": 5521,
      "##ис": 5522,
      "zaludnienia": 5523,
      "когато": 5524,
      "##kiej": 5525,
      "##ващи": 5526,
      "księ": 5527,
      "кора": 5528,
      "1944": 5529,
      "оби": 5530,
      "život": 5531,
      "##anu": 5532,
      "następnie": 5533,
      "##ера": 5534,
      "miasto": 5535,
      "##álně": 5536,
      "přek": 5537,
      "##chodzą": 5538,
      "##gh": 5539,
      "##erem": 5540,
      "##дат": 5541,
      "няколко": 5542,
      "ге": 5543,
      "##eta": 5544,
      "##vis": 5545,
      "Os": 5546,
      "sierpnia": 5547,
      "##stytu": 5548,
      "ku": 5549,
      "slov": 5550,
      "проек": 5551,
      "##вобо": 5552,
      "jazy": 5553,
      "настоя": 5554,
      "okrę": 5555,
      "marca": 5556,
      "ode": 5557,
      "##ил": 5558,
      "##wersyt": 5559,
      "raz": 5560,
      "##zá": 5561,
      "##рам": 5562,
      "##ръг": 5563,
      "Bě": 5564,
      "Jako": 5565,
      "pis": 5566,
      "бъде": 5567,
      "##ická": 5568,
      "osoby": 5569,
      "мет": 5570,
      "исполь": 5571,
      "чер": 5572,
      "##tis": 5573,
      "Th": 5574,
      "##чка": 5575,
      "##pt": 5576,
      "##bar": 5577,
      "wod": 5578,
      "##ota": 5579,
      "##ill": 5580,
      "сент": 5581,
      "##ator": 5582,
      "často": 5583,
      "##cznym": 5584,
      "Sk": 5585,
      "mimo": 5586,
      "systém": 5587,
      "##dent": 5588,
      "##едно": 5589,
      "светов": 5590,
      "##orm": 5591,
      "ян": 5592,
      "swoje": 5593,
      "##dej": 5594,
      "официаль": 5595,
      "listopadu": 5596,
      "32": 5597,
      "террито": 5598,
      "niż": 5599,
      "kop": 5600,
      "ponad": 5601,
      "form": 5602,
      "autor": 5603,
      "##gro": 5604,
      "##vu": 5605,
      "dem": 5606,
      "##olog": 5607,
      "Pot": 5608,
      "успе": 5609,
      "##ьо": 5610,
      "lipca": 5611,
      "началото": 5612,
      "duż": 5613,
      "XIX": 5614,
      "говори": 5615,
      "Ok": 5616,
      "##ген": 5617,
      "králov": 5618,
      "##owski": 5619,
      "wschod": 5620,
      "przypad": 5621,
      "szy": 5622,
      "##ета": 5623,
      "университе": 5624,
      "36": 5625,
      "Пер": 5626,
      "skupiny": 5627,
      "##бро": 5628,
      "2017": 5629,
      "spolu": 5630,
      "Ben": 5631,
      "Był": 5632,
      "stra": 5633,
      "departamencie": 5634,
      "něj": 5635,
      "##лкой": 5636,
      "přev": 5637,
      "doby": 5638,
      "##śli": 5639,
      "##ляр": 5640,
      "##alne": 5641,
      "##ęż": 5642,
      "##веро": 5643,
      "mon": 5644,
      "kraju": 5645,
      "##дела": 5646,
      "síd": 5647,
      "181": 5648,
      "##кры": 5649,
      "##пте": 5650,
      "Sh": 5651,
      "##oun": 5652,
      "##хра": 5653,
      "##лек": 5654,
      "dwóch": 5655,
      "kterou": 5656,
      "##зон": 5657,
      "ло": 5658,
      "Pow": 5659,
      "Все": 5660,
      "##емы": 5661,
      "власти": 5662,
      "sport": 5663,
      "##ších": 5664,
      "poh": 5665,
      "##води": 5666,
      "##zku": 5667,
      "ver": 5668,
      "##тий": 5669,
      "север": 5670,
      "##ostat": 5671,
      "##řes": 5672,
      "один": 5673,
      "lut": 5674,
      "tych": 5675,
      "Сан": 5676,
      "##kdy": 5677,
      "Jego": 5678,
      "##onej": 5679,
      "##слав": 5680,
      "nim": 5681,
      "состоя": 5682,
      "##zb": 5683,
      "##щее": 5684,
      "foto": 5685,
      "отмеча": 5686,
      "##él": 5687,
      "Mor": 5688,
      "##eci": 5689,
      "Com": 5690,
      "Při": 5691,
      "##вал": 5692,
      "Dol": 5693,
      "запа": 5694,
      "tohoto": 5695,
      "вече": 5696,
      "okresie": 5697,
      "##łą": 5698,
      "nás": 5699,
      "##цер": 5700,
      "rost": 5701,
      "##ino": 5702,
      "ци": 5703,
      "post": 5704,
      "materi": 5705,
      "##вших": 5706,
      "янва": 5707,
      "Pan": 5708,
      "##дри": 5709,
      "##tel": 5710,
      "##onym": 5711,
      "Cent": 5712,
      "##фак": 5713,
      "Спо": 5714,
      "kwietnia": 5715,
      "ge": 5716,
      "##ovány": 5717,
      "##wój": 5718,
      "urz": 5719,
      "##ation": 5720,
      "столи": 5721,
      "##ość": 5722,
      "##oc": 5723,
      "##enci": 5724,
      "wojsk": 5725,
      "##чу": 5726,
      "##тора": 5727,
      "arty": 5728,
      "##lán": 5729,
      "##žní": 5730,
      "власт": 5731,
      "45": 5732,
      "ссылкой": 5733,
      "wiel": 5734,
      "##чин": 5735,
      "##ger": 5736,
      "Исто": 5737,
      "reprezenta": 5738,
      "##лната": 5739,
      "Герма": 5740,
      "sł": 5741,
      "##ское": 5742,
      "##tra": 5743,
      "Kor": 5744,
      "jednost": 5745,
      "##ские": 5746,
      "обя": 5747,
      "##ената": 5748,
      "##руга": 5749,
      "##шей": 5750,
      "##рев": 5751,
      "Mist": 5752,
      "XVI": 5753,
      "##публика": 5754,
      "pomi": 5755,
      "##kości": 5756,
      "окт": 5757,
      "boh": 5758,
      "dalších": 5759,
      "дома": 5760,
      "позво": 5761,
      "##ených": 5762,
      "##liš": 5763,
      "vů": 5764,
      "Ta": 5765,
      "пя": 5766,
      "##oty": 5767,
      "narod": 5768,
      "##цата": 5769,
      "##сса": 5770,
      "сообщил": 5771,
      "les": 5772,
      "slo": 5773,
      "oś": 5774,
      "##praw": 5775,
      "południ": 5776,
      "litera": 5777,
      "##един": 5778,
      "##zent": 5779,
      "##gran": 5780,
      "##żu": 5781,
      "každ": 5782,
      "##zer": 5783,
      "úspě": 5784,
      "##rus": 5785,
      "##ění": 5786,
      "##ista": 5787,
      "szcze": 5788,
      "##koń": 5789,
      "gęstość": 5790,
      "##лета": 5791,
      "grupy": 5792,
      "terenie": 5793,
      "Йо": 5794,
      "##pół": 5795,
      "##ените": 5796,
      "polov": 5797,
      "страна": 5798,
      "sek": 5799,
      "##льно": 5800,
      "ху": 5801,
      "umí": 5802,
      "listopada": 5803,
      "mał": 5804,
      "daw": 5805,
      "wers": 5806,
      "##tar": 5807,
      "społ": 5808,
      "##rek": 5809,
      "Украины": 5810,
      "##kro": 5811,
      "##ického": 5812,
      "Podle": 5813,
      "##ać": 5814,
      "Pří": 5815,
      "##ческой": 5816,
      "тор": 5817,
      "sed": 5818,
      "мили": 5819,
      "##ческа": 5820,
      "charakter": 5821,
      "ře": 5822,
      "##лист": 5823,
      "##zek": 5824,
      "##мит": 5825,
      "##alnych": 5826,
      "##pr": 5827,
      "gran": 5828,
      "##ęg": 5829,
      "##щения": 5830,
      "##zm": 5831,
      "čís": 5832,
      "##jedno": 5833,
      "So": 5834,
      "остров": 5835,
      "též": 5836,
      "Но": 5837,
      "Dru": 5838,
      "##прия": 5839,
      "жители": 5840,
      "##elu": 5841,
      "##gan": 5842,
      "постав": 5843,
      "provo": 5844,
      "As": 5845,
      "zostały": 5846,
      "##ując": 5847,
      "пос": 5848,
      "Har": 5849,
      "ją": 5850,
      "##ружи": 5851,
      "fi": 5852,
      "pá": 5853,
      "wyso": 5854,
      "##сказа": 5855,
      "##čky": 5856,
      "##ovalo": 5857,
      "##okra": 5858,
      "##ovaly": 5859,
      "lze": 5860,
      "pal": 5861,
      "##atun": 5862,
      "##dł": 5863,
      "##mii": 5864,
      "hudeb": 5865,
      "ba": 5866,
      "##kan": 5867,
      "##дите": 5868,
      "zamieszkiwało": 5869,
      "##čních": 5870,
      "Ex": 5871,
      "archit": 5872,
      "##tyj": 5873,
      "seri": 5874,
      "33": 5875,
      "поя": 5876,
      "far": 5877,
      "zni": 5878,
      "žád": 5879,
      "##нению": 5880,
      "św": 5881,
      "skon": 5882,
      "##gryw": 5883,
      "Lit": 5884,
      "180": 5885,
      "Wi": 5886,
      "##něž": 5887,
      "##čast": 5888,
      "amerykań": 5889,
      "vydá": 5890,
      "##ału": 5891,
      "река": 5892,
      "##тя": 5893,
      "февра": 5894,
      "odpowie": 5895,
      "ради": 5896,
      "участие": 5897,
      "Так": 5898,
      "##ława": 5899,
      "čin": 5900,
      "##ismu": 5901,
      "##roje": 5902,
      "obsah": 5903,
      "##ens": 5904,
      "karié": 5905,
      "světa": 5906,
      "Kan": 5907,
      "##rní": 5908,
      "##моби": 5909,
      "ast": 5910,
      "##ших": 5911,
      "##nęt": 5912,
      "wielu": 5913,
      "fot": 5914,
      "заме": 5915,
      "жен": 5916,
      "##car": 5917,
      "##cjon": 5918,
      "тър": 5919,
      "назна": 5920,
      "##oną": 5921,
      "planet": 5922,
      "##ému": 5923,
      "pozy": 5924,
      "kr": 5925,
      "##czną": 5926,
      "##liwo": 5927,
      "##rew": 5928,
      "císa": 5929,
      "##льный": 5930,
      "##туа": 5931,
      "##ństw": 5932,
      "##дели": 5933,
      "Josef": 5934,
      "сказа": 5935,
      "soci": 5936,
      "##eň": 5937,
      "głównie": 5938,
      "##щего": 5939,
      "##гут": 5940,
      "разполож": 5941,
      "národ": 5942,
      "##ору": 5943,
      "książ": 5944,
      "##ává": 5945,
      "býval": 5946,
      "##ův": 5947,
      "Kat": 5948,
      "установ": 5949,
      "##net": 5950,
      "чу": 5951,
      "транс": 5952,
      "##чет": 5953,
      "мно": 5954,
      "##птември": 5955,
      "апре": 5956,
      "Ab": 5957,
      "nos": 5958,
      "##ecy": 5959,
      "необходи": 5960,
      "брита": 5961,
      "##kách": 5962,
      "Go": 5963,
      "pu": 5964,
      "##ováno": 5965,
      "Mě": 5966,
      "per": 5967,
      "500": 5968,
      "Интерфак": 5969,
      "аре": 5970,
      "En": 5971,
      "мат": 5972,
      "Byl": 5973,
      "##kiego": 5974,
      "května": 5975,
      "##níků": 5976,
      "Македо": 5977,
      "ря": 5978,
      "##щение": 5979,
      "##któ": 5980,
      "##apon": 5981,
      "##aniem": 5982,
      "##ckich": 5983,
      "разме": 5984,
      "##lost": 5985,
      "pie": 5986,
      "##stu": 5987,
      "##строй": 5988,
      "которая": 5989,
      "новы": 5990,
      "Анд": 5991,
      "##цо": 5992,
      "##bách": 5993,
      "historii": 5994,
      "Ита": 5995,
      "lot": 5996,
      "pił": 5997,
      "zákon": 5998,
      "parla": 5999,
      "София": 6000,
      "##грани": 6001,
      "##пом": 6002,
      "посе": 6003,
      "Rep": 6004,
      "Kom": 6005,
      "teor": 6006,
      "##prowadz": 6007,
      "pię": 6008,
      "дела": 6009,
      "вопро": 6010,
      "Однако": 6011,
      "##ciej": 6012,
      "##str": 6013,
      "program": 6014,
      "##ládá": 6015,
      "Bry": 6016,
      "##зд": 6017,
      "кило": 6018,
      "ры": 6019,
      "##ovém": 6020,
      "označ": 6021,
      "Това": 6022,
      "генера": 6023,
      "##těz": 6024,
      "Du": 6025,
      "posiad": 6026,
      "##odz": 6027,
      "##tev": 6028,
      "она": 6029,
      "vysok": 6030,
      "повече": 6031,
      "Me": 6032,
      "чрез": 6033,
      "Hol": 6034,
      "двух": 6035,
      "которых": 6036,
      "авиа": 6037,
      "##owskiego": 6038,
      "##konomi": 6039,
      "##měř": 6040,
      "For": 6041,
      "##нача": 6042,
      "teh": 6043,
      "##ld": 6044,
      "##ung": 6045,
      "##каз": 6046,
      "úd": 6047,
      "##jawi": 6048,
      "strany": 6049,
      "większ": 6050,
      "##zięki": 6051,
      "СА": 6052,
      "Af": 6053,
      "##lej": 6054,
      "##rud": 6055,
      "где": 6056,
      "##mar": 6057,
      "гу": 6058,
      "##cześniej": 6059,
      "mor": 6060,
      "doku": 6061,
      "Ang": 6062,
      "##менти": 6063,
      "##пания": 6064,
      "##държа": 6065,
      "##oła": 6066,
      "ши": 6067,
      "uzysk": 6068,
      "заедно": 6069,
      "##onego": 6070,
      "34": 6071,
      "Inter": 6072,
      "сер": 6073,
      "инте": 6074,
      "Ku": 6075,
      "##muje": 6076,
      "##cím": 6077,
      "wykorzy": 6078,
      "mecz": 6079,
      "##owały": 6080,
      "konce": 6081,
      "největ": 6082,
      "##owali": 6083,
      "těch": 6084,
      "filmu": 6085,
      "##szech": 6086,
      "##ůj": 6087,
      "##ówczas": 6088,
      "##bou": 6089,
      "##romě": 6090,
      "##SR": 6091,
      "##nov": 6092,
      "##lech": 6093,
      "прош": 6094,
      "##СС": 6095,
      "początku": 6096,
      "At": 6097,
      "##ланд": 6098,
      "titul": 6099,
      "контро": 6100,
      "soutě": 6101,
      "obie": 6102,
      "stani": 6103,
      "Според": 6104,
      "##por": 6105,
      "Ло": 6106,
      "##řád": 6107,
      "##sal": 6108,
      "spis": 6109,
      "свобо": 6110,
      "října": 6111,
      "sva": 6112,
      "Юж": 6113,
      "Man": 6114,
      "##дава": 6115,
      "##tym": 6116,
      "##зии": 6117,
      "zápas": 6118,
      "protože": 6119,
      "młod": 6120,
      "##вает": 6121,
      "gospodar": 6122,
      "##oda": 6123,
      "Dy": 6124,
      "##бова": 6125,
      "využí": 6126,
      "##ert": 6127,
      "##ческих": 6128,
      "tomu": 6129,
      "światowej": 6130,
      "Pos": 6131,
      "oblast": 6132,
      "председа": 6133,
      "##cach": 6134,
      "##jący": 6135,
      "Hen": 6136,
      "Ed": 6137,
      "##кия": 6138,
      "##grał": 6139,
      "Spo": 6140,
      "##erii": 6141,
      "Это": 6142,
      "ще": 6143,
      "##шении": 6144,
      "иск": 6145,
      "właści": 6146,
      "##али": 6147,
      "ог": 6148,
      "1980": 6149,
      "##пло": 6150,
      "Ry": 6151,
      "men": 6152,
      "lutego": 6153,
      "стан": 6154,
      "każ": 6155,
      "##nout": 6156,
      "тази": 6157,
      "парла": 6158,
      "##tiš": 6159,
      "тези": 6160,
      "получава": 6161,
      "działa": 6162,
      "Биография": 6163,
      "##odob": 6164,
      "##ające": 6165,
      "неф": 6166,
      "проду": 6167,
      "Никола": 6168,
      "##вшего": 6169,
      "zawie": 6170,
      "tzw": 6171,
      "Сто": 6172,
      "##zym": 6173,
      "Ду": 6174,
      "##80": 6175,
      "день": 6176,
      "##сил": 6177,
      "сбор": 6178,
      "vlastní": 6179,
      "##íl": 6180,
      "зем": 6181,
      "см": 6182,
      "měla": 6183,
      "##тина": 6184,
      "Геор": 6185,
      "Praze": 6186,
      "Dav": 6187,
      "нару": 6188,
      "##овата": 6189,
      "##gar": 6190,
      "00": 6191,
      "передает": 6192,
      "направ": 6193,
      "##berg": 6194,
      "##moř": 6195,
      "Si": 6196,
      "sh": 6197,
      "участва": 6198,
      "##пуска": 6199,
      "syna": 6200,
      "##zyw": 6201,
      "##зопас": 6202,
      "názv": 6203,
      "##крати": 6204,
      "производ": 6205,
      "Rze": 6206,
      "El": 6207,
      "##стъп": 6208,
      "výš": 6209,
      "значи": 6210,
      "подоб": 6211,
      "Da": 6212,
      "встре": 6213,
      "##стои": 6214,
      "##olen": 6215,
      "Franci": 6216,
      "бое": 6217,
      "minist": 6218,
      "rám": 6219,
      "Co": 6220,
      "##шет": 6221,
      "##ama": 6222,
      "divad": 6223,
      "произве": 6224,
      "сте": 6225,
      "ap": 6226,
      "Бер": 6227,
      "САЩ": 6228,
      "##šem": 6229,
      "dr": 6230,
      "журнали": 6231,
      "септември": 6232,
      "la": 6233,
      "града": 6234,
      "dále": 6235,
      "##stawie": 6236,
      "представ": 6237,
      "Kości": 6238,
      "##ект": 6239,
      "возмож": 6240,
      "##žití": 6241,
      "Col": 6242,
      "них": 6243,
      "Mil": 6244,
      "##чество": 6245,
      "автомоби": 6246,
      "června": 6247,
      "##неш": 6248,
      "##woj": 6249,
      "утвер": 6250,
      "Gran": 6251,
      "opět": 6252,
      "##лем": 6253,
      "Stud": 6254,
      "отметил": 6255,
      "##ace": 6256,
      "когда": 6257,
      "Ис": 6258,
      "граф": 6259,
      "##alnie": 6260,
      "stał": 6261,
      "znám": 6262,
      "##zal": 6263,
      "##менно": 6264,
      "##lice": 6265,
      "##stal": 6266,
      "wpły": 6267,
      "##pozy": 6268,
      "##encji": 6269,
      "Чер": 6270,
      "##ley": 6271,
      "чемпи": 6272,
      "exist": 6273,
      "##nienie": 6274,
      "spraw": 6275,
      "убий": 6276,
      "##lew": 6277,
      "Tu": 6278,
      "ruch": 6279,
      "często": 6280,
      "Гра": 6281,
      "пъ": 6282,
      "##kowie": 6283,
      "Lo": 6284,
      "znak": 6285,
      "частности": 6286,
      "сайте": 6287,
      "##czyła": 6288,
      "##ologii": 6289,
      "##ева": 6290,
      "179": 6291,
      "##stąpił": 6292,
      "wiele": 6293,
      "března": 6294,
      "##ający": 6295,
      "150": 6296,
      "##sol": 6297,
      "##град": 6298,
      "vo": 6299,
      "името": 6300,
      "преступ": 6301,
      "музи": 6302,
      "связи": 6303,
      "duch": 6304,
      "оказа": 6305,
      "życia": 6306,
      "##tach": 6307,
      "##ким": 6308,
      "poś": 6309,
      "премь": 6310,
      "##czął": 6311,
      "Stanis": 6312,
      "ram": 6313,
      "маши": 6314,
      "##раи": 6315,
      "##raż": 6316,
      "tab": 6317,
      "polo": 6318,
      "##ległości": 6319,
      "Su": 6320,
      "##ank": 6321,
      "##ента": 6322,
      "##ategor": 6323,
      "##ckie": 6324,
      "изпъл": 6325,
      "##fik": 6326,
      "##кин": 6327,
      "ней": 6328,
      "pob": 6329,
      "dubna": 6330,
      "Warszawie": 6331,
      "##erní": 6332,
      "proces": 6333,
      "veřej": 6334,
      "leží": 6335,
      "импе": 6336,
      "Českosloven": 6337,
      "смо": 6338,
      "##nica": 6339,
      "ledna": 6340,
      "mez": 6341,
      "##соб": 6342,
      "Lub": 6343,
      "##inci": 6344,
      "##сан": 6345,
      "světové": 6346,
      "едно": 6347,
      "род": 6348,
      "výro": 6349,
      "##čan": 6350,
      "muž": 6351,
      "агентство": 6352,
      "Велико": 6353,
      "zůst": 6354,
      "182": 6355,
      "заклю": 6356,
      "##čem": 6357,
      "sztu": 6358,
      "##ecj": 6359,
      "##лъ": 6360,
      "актив": 6361,
      "коман": 6362,
      "čtvr": 6363,
      "##rany": 6364,
      "##ied": 6365,
      "univerz": 6366,
      "ранее": 6367,
      "třet": 6368,
      "osią": 6369,
      "##зер": 6370,
      "tým": 6371,
      "##кнов": 6372,
      "seve": 6373,
      "jmen": 6374,
      "##лина": 6375,
      "община": 6376,
      "niem": 6377,
      "##oro": 6378,
      "терито": 6379,
      "klubu": 6380,
      "##ществу": 6381,
      "первы": 6382,
      "místě": 6383,
      "сту": 6384,
      "марта": 6385,
      "čtyř": 6386,
      "##stoupil": 6387,
      "John": 6388,
      "##stem": 6389,
      "uved": 6390,
      "круп": 6391,
      "комите": 6392,
      "vyp": 6393,
      "##stva": 6394,
      "##ровать": 6395,
      "увели": 6396,
      "závod": 6397,
      "Македония": 6398,
      "plas": 6399,
      "studi": 6400,
      "##zech": 6401,
      "##żył": 6402,
      "##syj": 6403,
      "##ér": 6404,
      "Praha": 6405,
      "Kró": 6406,
      "##кви": 6407,
      "особ": 6408,
      "##nio": 6409,
      "společnosti": 6410,
      "obraz": 6411,
      "##zeni": 6412,
      "##łem": 6413,
      "##раст": 6414,
      "začal": 6415,
      "глава": 6416,
      "##tické": 6417,
      "##жава": 6418,
      "##ide": 6419,
      "##ждения": 6420,
      "et": 6421,
      "druży": 6422,
      "##скую": 6423,
      "##мат": 6424,
      "##ствую": 6425,
      "##ależy": 6426,
      "Gór": 6427,
      "##щих": 6428,
      "анг": 6429,
      "прин": 6430,
      "филь": 6431,
      "považ": 6432,
      "##mię": 6433,
      "součástí": 6434,
      "Ту": 6435,
      "##slu": 6436,
      "Bur": 6437,
      "czter": 6438,
      "skute": 6439,
      "zaś": 6440,
      "Fer": 6441,
      "července": 6442,
      "##лены": 6443,
      "##унк": 6444,
      "##шо": 6445,
      "##ývá": 6446,
      "живот": 6447,
      "##naj": 6448,
      "and": 6449,
      "Během": 6450,
      "отде": 6451,
      "samym": 6452,
      "##насти": 6453,
      "ucze": 6454,
      "##ely": 6455,
      "37": 6456,
      "Ter": 6457,
      "VI": 6458,
      "##cel": 6459,
      "##преки": 6460,
      "několika": 6461,
      "върху": 6462,
      "##тон": 6463,
      "##wią": 6464,
      "##ступа": 6465,
      "konstruk": 6466,
      "1988": 6467,
      "Hor": 6468,
      "řek": 6469,
      "Před": 6470,
      "различни": 6471,
      "матери": 6472,
      "Дже": 6473,
      "##rn": 6474,
      "##ędzy": 6475,
      "свър": 6476,
      "програм": 6477,
      "##tin": 6478,
      "zespołu": 6479,
      "lek": 6480,
      "došlo": 6481,
      "##тан": 6482,
      "##тай": 6483,
      "##ždě": 6484,
      "быть": 6485,
      "Uniwersyt": 6486,
      "Миха": 6487,
      "ener": 6488,
      "##alny": 6489,
      "wyp": 6490,
      "regionu": 6491,
      "vojen": 6492,
      "##връ": 6493,
      "##ająca": 6494,
      "Char": 6495,
      "kategor": 6496,
      "откри": 6497,
      "четвер": 6498,
      "##rotnie": 6499,
      "kilka": 6500,
      "безопас": 6501,
      "##lení": 6502,
      "śmierci": 6503,
      "##ac": 6504,
      "архи": 6505,
      "Mezi": 6506,
      "##мов": 6507,
      "##10": 6508,
      "##станови": 6509,
      "стать": 6510,
      "дъщер": 6511,
      "manžel": 6512,
      "сле": 6513,
      "kilku": 6514,
      "##ктомври": 6515,
      "##hov": 6516,
      "##юр": 6517,
      "##boru": 6518,
      "naw": 6519,
      "##волю": 6520,
      "budy": 6521,
      "##лит": 6522,
      "Ша": 6523,
      "прово": 6524,
      "Dzie": 6525,
      "често": 6526,
      "##szczy": 6527,
      "##кси": 6528,
      "imp": 6529,
      "rozpoczę": 6530,
      "věd": 6531,
      "mag": 6532,
      "почти": 6533,
      "свою": 6534,
      "поль": 6535,
      "wówczas": 6536,
      "cie": 6537,
      "провин": 6538,
      "##atycz": 6539,
      "vrá": 6540,
      "##kl": 6541,
      "gatun": 6542,
      "##arza": 6543,
      "работи": 6544,
      "rodzaj": 6545,
      "нари": 6546,
      "Cho": 6547,
      "которой": 6548,
      "##álních": 6549,
      "прав": 6550,
      "показа": 6551,
      "název": 6552,
      "##щей": 6553,
      "яну": 6554,
      "мину": 6555,
      "dek": 6556,
      "Gen": 6557,
      "##ръц": 6558,
      "кул": 6559,
      "##имо": 6560,
      "drug": 6561,
      "těchto": 6562,
      "##ster": 6563,
      "год": 6564,
      "сентября": 6565,
      "обна": 6566,
      "##orf": 6567,
      "декабря": 6568,
      "srpna": 6569,
      "sko": 6570,
      "##ůli": 6571,
      "Тур": 6572,
      "##láš": 6573,
      "##GC": 6574,
      "plasuje": 6575,
      "długo": 6576,
      "sklad": 6577,
      "Pop": 6578,
      "попу": 6579,
      "##kowej": 6580,
      "sna": 6581,
      "##бя": 6582,
      "свое": 6583,
      "roli": 6584,
      "používá": 6585,
      "##дра": 6586,
      "chrá": 6587,
      "депу": 6588,
      "##льные": 6589,
      "Rak": 6590,
      "armá": 6591,
      "##сии": 6592,
      "siedzi": 6593,
      "##нява": 6594,
      "доба": 6595,
      "ciągu": 6596,
      "mot": 6597,
      "которого": 6598,
      "zmi": 6599,
      "Zd": 6600,
      "бю": 6601,
      "##czeniu": 6602,
      "##fek": 6603,
      "##нат": 6604,
      "##ovit": 6605,
      "kw": 6606,
      "##sil": 6607,
      "пода": 6608,
      "##лява": 6609,
      "sprze": 6610,
      "Živ": 6611,
      "działal": 6612,
      "úno": 6613,
      "##ział": 6614,
      "януари": 6615,
      "ноября": 6616,
      "##ille": 6617,
      "Гос": 6618,
      "##wach": 6619,
      "имат": 6620,
      "##берг": 6621,
      "октомври": 6622,
      "##гле": 6623,
      "##бва": 6624,
      "##овой": 6625,
      "После": 6626,
      "Dem": 6627,
      "1948": 6628,
      "##hor": 6629,
      "##rvé": 6630,
      "января": 6631,
      "откры": 6632,
      "##ному": 6633,
      "konku": 6634,
      "услови": 6635,
      "центра": 6636,
      "300": 6637,
      "##żej": 6638,
      "svých": 6639,
      "dopra": 6640,
      "##ВД": 6641,
      "von": 6642,
      "38": 6643,
      "mlad": 6644,
      "oh": 6645,
      "август": 6646,
      "##osen": 6647,
      "состави": 6648,
      "projekt": 6649,
      "##нася": 6650,
      "##aci": 6651,
      "##обра": 6652,
      "места": 6653,
      "ходе": 6654,
      "нем": 6655,
      "Val": 6656,
      "##skytu": 6657,
      "kolem": 6658,
      "kier": 6659,
      "##вед": 6660,
      "##rodz": 6661,
      "2018": 6662,
      "plo": 6663,
      "jeszcze": 6664,
      "Qu": 6665,
      "##емо": 6666,
      "##сова": 6667,
      "##dop": 6668,
      "##ian": 6669,
      "юни": 6670,
      "žen": 6671,
      "##zyn": 6672,
      "##owod": 6673,
      "сти": 6674,
      "##телите": 6675,
      "миллиарда": 6676,
      "##sek": 6677,
      "##гия": 6678,
      "nov": 6679,
      "cír": 6680,
      "##ón": 6681,
      "совер": 6682,
      "##wierdz": 6683,
      "##голов": 6684,
      "##ními": 6685,
      "plat": 6686,
      "юли": 6687,
      "##ownie": 6688,
      "##dem": 6689,
      "volbách": 6690,
      "##ющих": 6691,
      "Poz": 6692,
      "съп": 6693,
      "1986": 6694,
      "1970": 6695,
      "##ые": 6696,
      "секре": 6697,
      "smrti": 6698,
      "1941": 6699,
      "ekonomi": 6700,
      "экономи": 6701,
      "prosince": 6702,
      "množ": 6703,
      "przedstawi": 6704,
      "взры": 6705,
      "благо": 6706,
      "1968": 6707,
      "дело": 6708,
      "Krzy": 6709,
      "Saint": 6710,
      "проти": 6711,
      "##ческого": 6712,
      "Тя": 6713,
      "терро": 6714,
      "##ńskich": 6715,
      "zwycię": 6716,
      "##řilo": 6717,
      "dni": 6718,
      "##нира": 6719,
      "##lach": 6720,
      "Под": 6721,
      "##áz": 6722,
      "##ыре": 6723,
      "оче": 6724,
      "##ený": 6725,
      "города": 6726,
      "Sto": 6727,
      "Bel": 6728,
      "##гре": 6729,
      "Jo": 6730,
      "зе": 6731,
      "##ph": 6732,
      "##wać": 6733,
      "##ková": 6734,
      "рассказа": 6735,
      "kos": 6736,
      "świata": 6737,
      "niez": 6738,
      "##isz": 6739,
      "##прил": 6740,
      "##řeb": 6741,
      "представля": 6742,
      "##nictwa": 6743,
      "##ající": 6744,
      "##ologick": 6745,
      "układ": 6746,
      "Con": 6747,
      "rámci": 6748,
      "сро": 6749,
      "178": 6750,
      "##narod": 6751,
      "тра": 6752,
      "##gł": 6753,
      "přij": 6754,
      "Por": 6755,
      "speci": 6756,
      "##страда": 6757,
      "меди": 6758,
      "миллиона": 6759,
      "mnoho": 6760,
      "##нин": 6761,
      "Интерфакс": 6762,
      "##гли": 6763,
      "genera": 6764,
      "bry": 6765,
      "rozší": 6766,
      "ща": 6767,
      "октября": 6768,
      "##cześnie": 6769,
      "##kowe": 6770,
      "Gru": 6771,
      "сви": 6772,
      "##нее": 6773,
      "информации": 6774,
      "##стта": 6775,
      "kiedy": 6776,
      "kri": 6777,
      "##ędą": 6778,
      "##pat": 6779,
      "elem": 6780,
      "český": 6781,
      "##ерт": 6782,
      "##omb": 6783,
      "отказа": 6784,
      "харак": 6785,
      "celu": 6786,
      "jednym": 6787,
      "граждан": 6788,
      "##oucí": 6789,
      "##iro": 6790,
      "##onów": 6791,
      "##rzu": 6792,
      "kontro": 6793,
      "##roveň": 6794,
      "##pom": 6795,
      "##og": 6796,
      "първо": 6797,
      "klasy": 6798,
      "1981": 6799,
      "подчер": 6800,
      "wielko": 6801,
      "kad": 6802,
      "Rud": 6803,
      "kieru": 6804,
      "##lor": 6805,
      "История": 6806,
      "##rán": 6807,
      "želez": 6808,
      "март": 6809,
      "##зар": 6810,
      "##omie": 6811,
      "##зов": 6812,
      "łą": 6813,
      "продол": 6814,
      "psych": 6815,
      "Pat": 6816,
      "Ot": 6817,
      "dat": 6818,
      "katast": 6819,
      "##lok": 6820,
      "##kształ": 6821,
      "##all": 6822,
      "##ющий": 6823,
      "##krač": 6824,
      "su": 6825,
      "организации": 6826,
      "сообщается": 6827,
      "##мар": 6828,
      "##ks": 6829,
      "дъщеря": 6830,
      "##adzie": 6831,
      "red": 6832,
      "oj": 6833,
      "стран": 6834,
      "##вести": 6835,
      "##něn": 6836,
      "##ствено": 6837,
      "##пусти": 6838,
      "##čas": 6839,
      "Františ": 6840,
      "чове": 6841,
      "proh": 6842,
      "Per": 6843,
      "Pl": 6844,
      "постро": 6845,
      "##řízení": 6846,
      "##kowy": 6847,
      "nr": 6848,
      "пишет": 6849,
      "##ством": 6850,
      "##rąż": 6851,
      "международ": 6852,
      "struk": 6853,
      "následu": 6854,
      "tvoří": 6855,
      "доб": 6856,
      "organiz": 6857,
      "otev": 6858,
      "запре": 6859,
      "##ницу": 6860,
      "##ěj": 6861,
      "ži": 6862,
      "Mas": 6863,
      "освобо": 6864,
      "##ул": 6865,
      "##nę": 6866,
      "##кну": 6867,
      "zostało": 6868,
      "##enty": 6869,
      "pomoc": 6870,
      "zob": 6871,
      "##ktery": 6872,
      "##rich": 6873,
      "##rag": 6874,
      "##boj": 6875,
      "##чните": 6876,
      "##ńska": 6877,
      "##mentu": 6878,
      "konci": 6879,
      "течение": 6880,
      "мак": 6881,
      "коми": 6882,
      "##цией": 6883,
      "Fin": 6884,
      "##owaniu": 6885,
      "Kol": 6886,
      "виде": 6887,
      "##rii": 6888,
      "1918": 6889,
      "##tami": 6890,
      "##йския": 6891,
      "##лии": 6892,
      "##ających": 6893,
      "en": 6894,
      "##tce": 6895,
      "##kowa": 6896,
      "##lově": 6897,
      "Němec": 6898,
      "##mieszcz": 6899,
      "mniej": 6900,
      "##него": 6901,
      "писа": 6902,
      "##зват": 6903,
      "mohou": 6904,
      "##ологи": 6905,
      "##nolo": 6906,
      "bie": 6907,
      "##czu": 6908,
      "##ciel": 6909,
      "ця": 6910,
      "olym": 6911,
      "региона": 6912,
      "##ise": 6913,
      "sub": 6914,
      "##koj": 6915,
      "език": 6916,
      "Sal": 6917,
      "nové": 6918,
      "##чев": 6919,
      "##бой": 6920,
      "kur": 6921,
      "##rych": 6922,
      "води": 6923,
      "пози": 6924,
      "##orys": 6925,
      "##мии": 6926,
      "##ąt": 6927,
      "##сло": 6928,
      "##зом": 6929,
      "##блю": 6930,
      "1984": 6931,
      "четыре": 6932,
      "строи": 6933,
      "1976": 6934,
      "opis": 6935,
      "##anej": 6936,
      "известно": 6937,
      "поле": 6938,
      "##čního": 6939,
      "Fil": 6940,
      "километ": 6941,
      "sob": 6942,
      "##пит": 6943,
      "рели": 6944,
      "republiky": 6945,
      "założ": 6946,
      "Вер": 6947,
      "díky": 6948,
      "hlav": 6949,
      "##роят": 6950,
      "##kowych": 6951,
      "этой": 6952,
      "bad": 6953,
      "Видът": 6954,
      "истори": 6955,
      "использова": 6956,
      "należą": 6957,
      "##arów": 6958,
      "##anego": 6959,
      "##хран": 6960,
      "ноември": 6961,
      "42": 6962,
      "německ": 6963,
      "април": 6964,
      "##lém": 6965,
      "##два": 6966,
      "1960": 6967,
      "založen": 6968,
      "zespół": 6969,
      "památ": 6970,
      "##slav": 6971,
      "##ecie": 6972,
      "##grafi": 6973,
      "Москвы": 6974,
      "мая": 6975,
      "wcześniej": 6976,
      "Cel": 6977,
      "##ением": 6978,
      "##sób": 6979,
      "##скому": 6980,
      "Разпространение": 6981,
      "##pp": 6982,
      "кли": 6983,
      "metrů": 6984,
      "Ni": 6985,
      "някои": 6986,
      "числе": 6987,
      "służ": 6988,
      "дек": 6989,
      "února": 6990,
      "tento": 6991,
      "vzta": 6992,
      "niej": 6993,
      "pochodzi": 6994,
      "##owało": 6995,
      "1987": 6996,
      "##ształ": 6997,
      "##gów": 6998,
      "мор": 6999,
      "##nictví": 7000,
      "Вто": 7001,
      "##lava": 7002,
      "##vyšší": 7003,
      "1985": 7004,
      "##ází": 7005,
      "Med": 7006,
      "##vádě": 7007,
      "Ор": 7008,
      "км": 7009,
      "Гру": 7010,
      "потре": 7011,
      "prezy": 7012,
      "##хе": 7013,
      "республи": 7014,
      "нови": 7015,
      "##цей": 7016,
      "okoli": 7017,
      "roze": 7018,
      "używ": 7019,
      "francu": 7020,
      "pełni": 7021,
      "##ňuje": 7022,
      "Rod": 7023,
      "##ус": 7024,
      "запад": 7025,
      "##rony": 7026,
      "скоро": 7027,
      "obecnie": 7028,
      "##ůvod": 7029,
      "рам": 7030,
      "##och": 7031,
      "##czony": 7032,
      "Di": 7033,
      "Георги": 7034,
      "декември": 7035,
      "1982": 7036,
      "##дан": 7037,
      "rodziny": 7038,
      "##roc": 7039,
      "##sen": 7040,
      "перво": 7041,
      "tys": 7042,
      "1946": 7043,
      "##hé": 7044,
      "##rovství": 7045,
      "пробле": 7046,
      "přest": 7047,
      "roś": 7048,
      "##olf": 7049,
      "##ější": 7050,
      "федера": 7051,
      "obě": 7052,
      "составля": 7053,
      "pochází": 7054,
      "меся": 7055,
      "jedna": 7056,
      "##ностью": 7057,
      "spolup": 7058,
      "##łowie": 7059,
      "pož": 7060,
      "##держан": 7061,
      "##leks": 7062,
      "##кови": 7063,
      "##вява": 7064,
      "##зем": 7065,
      "страната": 7066,
      "Владимир": 7067,
      "39": 7068,
      "крал": 7069,
      "Най": 7070,
      "##aná": 7071,
      "##zo": 7072,
      "##ance": 7073,
      "##obec": 7074,
      "июля": 7075,
      "мла": 7076,
      "##ołnie": 7077,
      "##лят": 7078,
      "##ił": 7079,
      "wyniku": 7080,
      "смърт": 7081,
      "##ниците": 7082,
      "##кура": 7083,
      "кам": 7084,
      "jednotliv": 7085,
      "będą": 7086,
      "wszystkich": 7087,
      "дво": 7088,
      "квар": 7089,
      "##aje": 7090,
      "##šní": 7091,
      "blí": 7092,
      "##шли": 7093,
      "##дина": 7094,
      "tep": 7095,
      "Jiří": 7096,
      "1940": 7097,
      "##роб": 7098,
      "svůj": 7099,
      "wspól": 7100,
      "Met": 7101,
      "pokrač": 7102,
      "##mez": 7103,
      "##nętrz": 7104,
      "ukaz": 7105,
      "коли": 7106,
      "##zrael": 7107,
      "##ложение": 7108,
      "sposób": 7109,
      "mistrzost": 7110,
      "den": 7111,
      "февраля": 7112,
      "Sloven": 7113,
      "čer": 7114,
      "reprezent": 7115,
      "##ater": 7116,
      "##лении": 7117,
      "подго": 7118,
      "ну": 7119,
      "##eniem": 7120,
      "##szedł": 7121,
      "Vz": 7122,
      "##óze": 7123,
      "reg": 7124,
      "##dziej": 7125,
      "##czonych": 7126,
      "##ńskie": 7127,
      "##еди": 7128,
      "pomocí": 7129,
      "jiné": 7130,
      "##itě": 7131,
      "##мест": 7132,
      "##тал": 7133,
      "##брита": 7134,
      "Warszaw": 7135,
      "eksp": 7136,
      "##ссии": 7137,
      "čtyři": 7138,
      "##čné": 7139,
      "stala": 7140,
      "##гава": 7141,
      "lata": 7142,
      "zbud": 7143,
      "dwie": 7144,
      "стал": 7145,
      "jedin": 7146,
      "##řem": 7147,
      "##czyn": 7148,
      "проте": 7149,
      "Zak": 7150,
      "##лер": 7151,
      "##ój": 7152,
      "##wiad": 7153,
      "##нала": 7154,
      "брат": 7155,
      "koniec": 7156,
      "##rodu": 7157,
      "tomto": 7158,
      "Zem": 7159,
      "июня": 7160,
      "więk": 7161,
      "1942": 7162,
      "reak": 7163,
      "Великобрита": 7164,
      "1943": 7165,
      "výraz": 7166,
      "gór": 7167,
      "училище": 7168,
      "##nání": 7169,
      "Tom": 7170,
      "##ствени": 7171,
      "1972": 7172,
      "sezó": 7173,
      "##сет": 7174,
      "##пон": 7175,
      "najwięk": 7176,
      "spad": 7177,
      "##ák": 7178,
      "44": 7179,
      "соответ": 7180,
      "kilomet": 7181,
      "##esp": 7182,
      "##řich": 7183,
      "věn": 7184,
      "##реш": 7185,
      "център": 7186,
      "##ья": 7187,
      "##час": 7188,
      "##četně": 7189,
      "##ič": 7190,
      "My": 7191,
      "система": 7192,
      "профе": 7193,
      "tex": 7194,
      "Pres": 7195,
      "##жество": 7196,
      "Ser": 7197,
      "##peč": 7198,
      "którzy": 7199,
      "апреля": 7200,
      "разпростран": 7201,
      "otrzymał": 7202,
      "konf": 7203,
      "##idel": 7204,
      "##висимо": 7205,
      "причи": 7206,
      "opu": 7207,
      "architek": 7208,
      "##чели": 7209,
      "1973": 7210,
      "według": 7211,
      "1983": 7212,
      "##пример": 7213,
      "členem": 7214,
      "mogą": 7215,
      "zamě": 7216,
      "##cami": 7217,
      "1969": 7218,
      "pomiędzy": 7219,
      "##рябва": 7220,
      "##сты": 7221,
      "подоз": 7222,
      "Jaro": 7223,
      "##bra": 7224,
      "сказал": 7225,
      "##nin": 7226,
      "##nami": 7227,
      "##hel": 7228,
      "ja": 7229,
      "##кие": 7230,
      "specj": 7231,
      "prowin": 7232,
      "##циали": 7233,
      "сезон": 7234,
      "канди": 7235,
      "##надле": 7236,
      "Zost": 7237,
      "##ham": 7238,
      "период": 7239,
      "##тей": 7240,
      "##бран": 7241,
      "účast": 7242,
      "##skými": 7243,
      "miała": 7244,
      "##тить": 7245,
      "podstaw": 7246,
      "##anem": 7247,
      "вме": 7248,
      "съвет": 7249,
      "rz": 7250,
      "taj": 7251,
      "##ujące": 7252,
      "насе": 7253,
      "##alnej": 7254,
      "стар": 7255,
      "okrese": 7256,
      "polski": 7257,
      "##телни": 7258,
      "пострада": 7259,
      "##фика": 7260,
      "хра": 7261,
      "43": 7262,
      "##che": 7263,
      "svat": 7264,
      "Россия": 7265,
      "##лния": 7266,
      "Post": 7267,
      "гос": 7268,
      "ули": 7269,
      "względu": 7270,
      "včetně": 7271,
      "połącz": 7272,
      "##říve": 7273,
      "##scy": 7274,
      "##ward": 7275,
      "управление": 7276,
      "Ze": 7277,
      "территории": 7278,
      "všechny": 7279,
      "1920": 7280,
      "анти": 7281,
      "ситуа": 7282,
      "страни": 7283,
      "##pos": 7284,
      "Bor": 7285,
      "##вно": 7286,
      "конце": 7287,
      "##rová": 7288,
      "uzn": 7289,
      "istnie": 7290,
      "Mia": 7291,
      "августа": 7292,
      "služ": 7293,
      "Tento": 7294,
      "##туры": 7295,
      "1938": 7296,
      "##aku": 7297,
      "##edera": 7298,
      "Spoj": 7299,
      "образова": 7300,
      "pole": 7301,
      "##ятся": 7302,
      "Gra": 7303,
      "действия": 7304,
      "1978": 7305,
      "##йти": 7306,
      "Мин": 7307,
      "худо": 7308,
      "##дии": 7309,
      "měsí": 7310,
      "партии": 7311,
      "řad": 7312,
      "##echani": 7313,
      "законо": 7314,
      "ryb": 7315,
      "1974": 7316,
      "Лю": 7317,
      "##фли": 7318,
      "1979": 7319,
      "мнению": 7320,
      "##вил": 7321,
      "##хва": 7322,
      "jehož": 7323,
      "cen": 7324,
      "Nach": 7325,
      "поне": 7326,
      "niektó": 7327,
      "##ługi": 7328,
      "szyb": 7329,
      "##тали": 7330,
      "##мор": 7331,
      "##gę": 7332,
      "Tra": 7333,
      "sing": 7334,
      "##рева": 7335,
      "##них": 7336,
      "##háj": 7337,
      "империя": 7338,
      "lecz": 7339,
      "каче": 7340,
      "момент": 7341,
      "lu": 7342,
      "dnes": 7343,
      "rodu": 7344,
      "drá": 7345,
      "албу": 7346,
      "##lis": 7347,
      "proce": 7348,
      "##кет": 7349,
      "##niczą": 7350,
      "pracy": 7351,
      "##lil": 7352,
      "sc": 7353,
      "Sev": 7354,
      "jedn": 7355,
      "##сей": 7356,
      "Cy": 7357,
      "принадле": 7358,
      "Boh": 7359,
      "##got": 7360,
      "##tii": 7361,
      "osad": 7362,
      "##dopodob": 7363,
      "Zjedno": 7364,
      "poslan": 7365,
      "suk": 7366,
      "výkon": 7367,
      "##łoń": 7368,
      "velké": 7369,
      "##щем": 7370,
      "Бал": 7371,
      "Население": 7372,
      "съв": 7373,
      "schop": 7374,
      "##bą": 7375,
      "голо": 7376,
      "1950": 7377,
      "Национа": 7378,
      "linii": 7379,
      "##лени": 7380,
      "Fi": 7381,
      "трябва": 7382,
      "moc": 7383,
      "##wit": 7384,
      "могут": 7385,
      "бил": 7386,
      "ему": 7387,
      "бло": 7388,
      "##tů": 7389,
      "##běh": 7390,
      "##ństwo": 7391,
      "Józe": 7392,
      "##чета": 7393,
      "своей": 7394,
      "через": 7395,
      "##rozen": 7396,
      "если": 7397,
      "75": 7398,
      "##říž": 7399,
      "##wyż": 7400,
      "55": 7401,
      "премьер": 7402,
      "##вле": 7403,
      "Pre": 7404,
      "##stvo": 7405,
      "wol": 7406,
      "Rom": 7407,
      "ona": 7408,
      "европе": 7409,
      "##odzie": 7410,
      "нео": 7411,
      "##žena": 7412,
      "##idov": 7413,
      "Naz": 7414,
      "задержан": 7415,
      "там": 7416,
      "odkry": 7417,
      "##yczaj": 7418,
      "##rové": 7419,
      "Podczas": 7420,
      "tro": 7421,
      "##вия": 7422,
      "оба": 7423,
      "##ряд": 7424,
      "противо": 7425,
      "##alaz": 7426,
      "##paněl": 7427,
      "университет": 7428,
      "##лива": 7429,
      "зако": 7430,
      "##60": 7431,
      "Анг": 7432,
      "##ven": 7433,
      "různých": 7434,
      "lin": 7435,
      "отбор": 7436,
      "dop": 7437,
      "gwia": 7438,
      "ul": 7439,
      "Минист": 7440,
      "grup": 7441,
      "предо": 7442,
      "počí": 7443,
      "##zj": 7444,
      "##ходя": 7445,
      "живе": 7446,
      "nád": 7447,
      "vlád": 7448,
      "безопасности": 7449,
      "Пра": 7450,
      "##гро": 7451,
      "Karo": 7452,
      "obje": 7453,
      "##ками": 7454,
      "dzieci": 7455,
      "##arch": 7456,
      "svým": 7457,
      "испол": 7458,
      "nawet": 7459,
      "ziemi": 7460,
      "Италия": 7461,
      "море": 7462,
      "##jące": 7463,
      "1971": 7464,
      "autom": 7465,
      "nakon": 7466,
      "##stów": 7467,
      "##ях": 7468,
      "зда": 7469,
      "##бар": 7470,
      "##ciorys": 7471,
      "министр": 7472,
      "##ong": 7473,
      "působil": 7474,
      "##гей": 7475,
      "наме": 7476,
      "посо": 7477,
      "sezonie": 7478,
      "Америка": 7479,
      "##бия": 7480,
      "Иван": 7481,
      "zim": 7482,
      "47": 7483,
      "vlády": 7484,
      "Аф": 7485,
      "##gres": 7486,
      "##ární": 7487,
      "znamen": 7488,
      "nakonec": 7489,
      "společnost": 7490,
      "czyli": 7491,
      "##ске": 7492,
      "##зма": 7493,
      "Kam": 7494,
      "##лот": 7495,
      "Życiorys": 7496,
      "kvůli": 7497,
      "##ologie": 7498,
      "стало": 7499,
      "присъ": 7500,
      "hodno": 7501,
      "района": 7502,
      "Nor": 7503,
      "мира": 7504,
      "##zk": 7505,
      "##чных": 7506,
      "prezi": 7507,
      "##ферен": 7508,
      "##йм": 7509,
      "Kdy": 7510,
      "могат": 7511,
      "drugi": 7512,
      "rozp": 7513,
      "zawiera": 7514,
      "planeto": 7515,
      "pí": 7516,
      "нея": 7517,
      "rovněž": 7518,
      "уголов": 7519,
      "Tim": 7520,
      "##met": 7521,
      "Май": 7522,
      "##podob": 7523,
      "Йор": 7524,
      "##тем": 7525,
      "еди": 7526,
      "##niem": 7527,
      "##тельства": 7528,
      "Willi": 7529,
      "żołnie": 7530,
      "kapit": 7531,
      "ovšem": 7532,
      "177": 7533,
      "Nad": 7534,
      "studia": 7535,
      "Cor": 7536,
      "##díl": 7537,
      "##uma": 7538,
      "##порта": 7539,
      "některých": 7540,
      "##чват": 7541,
      "малко": 7542,
      "##nila": 7543,
      "##usa": 7544,
      "##като": 7545,
      "##rak": 7546,
      "41": 7547,
      "vesnice": 7548,
      "##jących": 7549,
      "Ча": 7550,
      "poprvé": 7551,
      "řím": 7552,
      "##ябре": 7553,
      "odległości": 7554,
      "револю": 7555,
      "##BC": 7556,
      "świe": 7557,
      "##нец": 7558,
      "##каде": 7559,
      "##hal": 7560,
      "Is": 7561,
      "конку": 7562,
      "контра": 7563,
      "##uper": 7564,
      "##писва": 7565,
      "Bal": 7566,
      "##дент": 7567,
      "закон": 7568,
      "Další": 7569,
      "Vác": 7570,
      "завършва": 7571,
      "Sł": 7572,
      "##нем": 7573,
      "##рил": 7574,
      "1977": 7575,
      "сц": 7576,
      "##rž": 7577,
      "Германия": 7578,
      "Москве": 7579,
      "Hu": 7580,
      "##шки": 7581,
      "##вите": 7582,
      "##рис": 7583,
      "##tv": 7584,
      "wysp": 7585,
      "отново": 7586,
      "##hrad": 7587,
      "miej": 7588,
      "nal": 7589,
      "##лев": 7590,
      "názvem": 7591,
      "Geor": 7592,
      "##вшие": 7593,
      "vr": 7594,
      "##имен": 7595,
      "##ráž": 7596,
      "Alex": 7597,
      "vzd": 7598,
      "##кого": 7599,
      "Przed": 7600,
      "##ены": 7601,
      "městě": 7602,
      "Mod": 7603,
      "юго": 7604,
      "Jer": 7605,
      "##ският": 7606,
      "okaz": 7607,
      "48": 7608,
      "##owymi": 7609,
      "grani": 7610,
      "негови": 7611,
      "zdobył": 7612,
      "Przez": 7613,
      "дея": 7614,
      "епи": 7615,
      "##ктора": 7616,
      "sem": 7617,
      "##anym": 7618,
      "##zbroj": 7619,
      "##idae": 7620,
      "##alek": 7621,
      "##icky": 7622,
      "##xi": 7623,
      "Dob": 7624,
      "jedynie": 7625,
      "wid": 7626,
      "проис": 7627,
      "vítěz": 7628,
      "северо": 7629,
      "орган": 7630,
      "##har": 7631,
      "Pu": 7632,
      "##czej": 7633,
      "##парта": 7634,
      "prote": 7635,
      "наблю": 7636,
      "##zuje": 7637,
      "##40": 7638,
      "появи": 7639,
      "##owę": 7640,
      "##rami": 7641,
      "muze": 7642,
      "##ристо": 7643,
      "срав": 7644,
      "##cela": 7645,
      "##ris": 7646,
      "pohy": 7647,
      "ито": 7648,
      "dzięki": 7649,
      "wyt": 7650,
      "Pav": 7651,
      "Aust": 7652,
      "ško": 7653,
      "##jm": 7654,
      "obvy": 7655,
      "##ум": 7656,
      "Świ": 7657,
      "##руари": 7658,
      "najlep": 7659,
      "samo": 7660,
      "ml": 7661,
      "poch": 7662,
      "1967": 7663,
      "##дил": 7664,
      "##asy": 7665,
      "politick": 7666,
      "намер": 7667,
      "##kowi": 7668,
      "##къ": 7669,
      "Miejs": 7670,
      "dodat": 7671,
      "větší": 7672,
      "##żli": 7673,
      "obej": 7674,
      "##jaw": 7675,
      "##дни": 7676,
      "umístě": 7677,
      "náv": 7678,
      "настоящее": 7679,
      "straně": 7680,
      "zmieni": 7681,
      "vla": 7682,
      "сдела": 7683,
      "деся": 7684,
      "poslední": 7685,
      "##věd": 7686,
      "Szko": 7687,
      "##чной": 7688,
      "февруари": 7689,
      "##лимпи": 7690,
      "##nitř": 7691,
      "разработ": 7692,
      "##зване": 7693,
      "powod": 7694,
      "кур": 7695,
      "##'s": 7696,
      "Хи": 7697,
      "Sv": 7698,
      "##mun": 7699,
      "##řit": 7700,
      "Pře": 7701,
      "těž": 7702,
      "brit": 7703,
      "zám": 7704,
      "##джа": 7705,
      "##ciem": 7706,
      "иде": 7707,
      "českosloven": 7708,
      "ответ": 7709,
      "##ovaný": 7710,
      "##obus": 7711,
      "téměř": 7712,
      "nacháze": 7713,
      "Wsp": 7714,
      "диа": 7715,
      "przewod": 7716,
      "##нологи": 7717,
      "SS": 7718,
      "големи": 7719,
      "##шем": 7720,
      "života": 7721,
      "других": 7722,
      "##čním": 7723,
      "niewie": 7724,
      "##aka": 7725,
      "Ind": 7726,
      "опубли": 7727,
      "reli": 7728,
      "##owanej": 7729,
      "400": 7730,
      "гръц": 7731,
      "Ев": 7732,
      "Henry": 7733,
      "rząd": 7734,
      "##30": 7735,
      "dis": 7736,
      "##помним": 7737,
      "##яват": 7738,
      "hran": 7739,
      "##cyjnych": 7740,
      "prv": 7741,
      "##рует": 7742,
      "##тки": 7743,
      "сист": 7744,
      "миллиардов": 7745,
      "Фа": 7746,
      "высо": 7747,
      "вну": 7748,
      "lidí": 7749,
      "formula_1": 7750,
      "strony": 7751,
      "Kraj": 7752,
      "Pie": 7753,
      "obci": 7754,
      "drugiej": 7755,
      "bá": 7756,
      "##cyjne": 7757,
      "##nické": 7758,
      "ограни": 7759,
      "úto": 7760,
      "этот": 7761,
      "##рд": 7762,
      "##ult": 7763,
      "##onii": 7764,
      "##ickou": 7765,
      "Zach": 7766,
      "nazwę": 7767,
      "prvním": 7768,
      "oku": 7769,
      "popular": 7770,
      "tytuł": 7771,
      "Mag": 7772,
      "obvod": 7773,
      "##ovět": 7774,
      "неиз": 7775,
      "rady": 7776,
      "množství": 7777,
      "практи": 7778,
      "екс": 7779,
      "##mil": 7780,
      "gal": 7781,
      "роден": 7782,
      "dra": 7783,
      "Wład": 7784,
      "##kání": 7785,
      "времени": 7786,
      "ukoń": 7787,
      "sé": 7788,
      "##alnego": 7789,
      "pok": 7790,
      "Бар": 7791,
      "1964": 7792,
      "Pon": 7793,
      "##ął": 7794,
      "głos": 7795,
      "niego": 7796,
      "##телна": 7797,
      "финанс": 7798,
      "##skému": 7799,
      "zg": 7800,
      "znajd": 7801,
      "tyto": 7802,
      "kobie": 7803,
      "##rně": 7804,
      "1919": 7805,
      "##álním": 7806,
      "bude": 7807,
      "##aný": 7808,
      "okresu": 7809,
      "Димит": 7810,
      "мы": 7811,
      "##atem": 7812,
      "cór": 7813,
      "Yor": 7814,
      "кръ": 7815,
      "##szcza": 7816,
      "Tato": 7817,
      "##dziel": 7818,
      "##denta": 7819,
      "##znaw": 7820,
      "most": 7821,
      "##гор": 7822,
      "Bran": 7823,
      "носи": 7824,
      "стре": 7825,
      "бро": 7826,
      "сум": 7827,
      "spotk": 7828,
      "samostat": 7829,
      "руковод": 7830,
      "Když": 7831,
      "##atele": 7832,
      "##rd": 7833,
      "##става": 7834,
      "osiąg": 7835,
      "чети": 7836,
      "##ip": 7837,
      "zag": 7838,
      "##rój": 7839,
      "договор": 7840,
      "##ojí": 7841,
      "jméno": 7842,
      "##ждение": 7843,
      "##bardziej": 7844,
      "tre": 7845,
      "1947": 7846,
      "##шая": 7847,
      "popula": 7848,
      "dře": 7849,
      "всего": 7850,
      "##ческата": 7851,
      "olympij": 7852,
      "##rb": 7853,
      "nav": 7854,
      "##ovo": 7855,
      "периода": 7856,
      "##личи": 7857,
      "práce": 7858,
      "##эро": 7859,
      "##стин": 7860,
      "##чена": 7861,
      "##zor": 7862,
      "podp": 7863,
      "gener": 7864,
      "##isí": 7865,
      "##organi": 7866,
      "##álního": 7867,
      "vliv": 7868,
      "реши": 7869,
      "nom": 7870,
      "Sez": 7871,
      "Głów": 7872,
      "1949": 7873,
      "Газ": 7874,
      "Франция": 7875,
      "укра": 7876,
      "##děpodob": 7877,
      "##ovací": 7878,
      "innymi": 7879,
      "##ovatel": 7880,
      "утвержда": 7881,
      "##ckého": 7882,
      "представители": 7883,
      "celé": 7884,
      "##dělen": 7885,
      "Wieś": 7886,
      "мене": 7887,
      "биз": 7888,
      "rež": 7889,
      "Kole": 7890,
      "объяви": 7891,
      "ponownie": 7892,
      "##нский": 7893,
      "válce": 7894,
      "Poli": 7895,
      "рын": 7896,
      "bod": 7897,
      "filoz": 7898,
      "импера": 7899,
      "##skut": 7900,
      "trans": 7901,
      "##ile": 7902,
      "65": 7903,
      "Jam": 7904,
      "##ser": 7905,
      "##gram": 7906,
      "##tom": 7907,
      "##stwie": 7908,
      "Čech": 7909,
      "##нския": 7910,
      "počet": 7911,
      "##śnie": 7912,
      "52": 7913,
      "##ждат": 7914,
      "##hra": 7915,
      "населението": 7916,
      "##ям": 7917,
      "##щий": 7918,
      "Ví": 7919,
      "maz": 7920,
      "Пар": 7921,
      "лидер": 7922,
      "##romad": 7923,
      "Brit": 7924,
      "##фици": 7925,
      "Чи": 7926,
      "нет": 7927,
      "Федера": 7928,
      "москов": 7929,
      "stále": 7930,
      "##ществ": 7931,
      "##pozi": 7932,
      "##akty": 7933,
      "кол": 7934,
      "##сна": 7935,
      "##zim": 7936,
      "##sad": 7937,
      "fotograf": 7938,
      "##ey": 7939,
      "##ujący": 7940,
      "ръково": 7941,
      "##лез": 7942,
      "państwa": 7943,
      "##казва": 7944,
      "1956": 7945,
      "doty": 7946,
      "воору": 7947,
      "##бов": 7948,
      "называ": 7949,
      "nazwa": 7950,
      "##czyć": 7951,
      "способ": 7952,
      "пост": 7953,
      "poru": 7954,
      "zakład": 7955,
      "наро": 7956,
      "##еры": 7957,
      "музика": 7958,
      "##nością": 7959,
      "##zacji": 7960,
      "umož": 7961,
      "největší": 7962,
      "спа": 7963,
      "##жд": 7964,
      "rozgryw": 7965,
      "##owanego": 7966,
      "##skem": 7967,
      "##vid": 7968,
      "wypo": 7969,
      "съпруга": 7970,
      "Puch": 7971,
      "##vers": 7972,
      "премина": 7973,
      "армия": 7974,
      "##onem": 7975,
      "удалось": 7976,
      "120": 7977,
      "##бата": 7978,
      "##rý": 7979,
      "Ман": 7980,
      "szczegól": 7981,
      "суб": 7982,
      "ju": 7983,
      "##ющие": 7984,
      "rosyj": 7985,
      "soud": 7986,
      "##niego": 7987,
      "odpowied": 7988,
      "##гата": 7989,
      "Mc": 7990,
      "сни": 7991,
      "ple": 7992,
      "##хода": 7993,
      "##eda": 7994,
      "реда": 7995,
      "důvod": 7996,
      "##год": 7997,
      "##atów": 7998,
      "turniej": 7999,
      "Život": 8000,
      "##rok": 8001,
      "наре": 8002,
      "stří": 8003,
      "zbyt": 8004,
      "świę": 8005,
      "##тисти": 8006,
      "погиб": 8007,
      "eu": 8008,
      "níž": 8009,
      "ukon": 8010,
      "всех": 8011,
      "pun": 8012,
      "##owanym": 8013,
      "##fe": 8014,
      "некото": 8015,
      "Bla": 8016,
      "##ędzie": 8017,
      "Aut": 8018,
      "##ckých": 8019,
      "осу": 8020,
      "вос": 8021,
      "##niční": 8022,
      "Напомним": 8023,
      "##ational": 8024,
      "51": 8025,
      "человека": 8026,
      "inte": 8027,
      "Цен": 8028,
      "##нь": 8029,
      "необходимо": 8030,
      "zaję": 8031,
      "##ściej": 8032,
      "Рим": 8033,
      "##lina": 8034,
      "телеви": 8035,
      "##entów": 8036,
      "##ons": 8037,
      "zło": 8038,
      "зад": 8039,
      "hudební": 8040,
      "##lika": 8041,
      "Ира": 8042,
      "##хан": 8043,
      "Akadem": 8044,
      "##рец": 8045,
      "##щении": 8046,
      "anglick": 8047,
      "очеред": 8048,
      "##któw": 8049,
      "Гу": 8050,
      "pierwszej": 8051,
      "крити": 8052,
      "сы": 8053,
      "hrad": 8054,
      "ide": 8055,
      "Proto": 8056,
      "stand": 8057,
      "Гър": 8058,
      "##кам": 8059,
      "##това": 8060,
      "##ade": 8061,
      "стороны": 8062,
      "##dził": 8063,
      "absol": 8064,
      "##torem": 8065,
      "жени": 8066,
      "Grand": 8067,
      "##чено": 8068,
      "należy": 8069,
      "самы": 8070,
      "##igh": 8071,
      "##hrá": 8072,
      "ces": 8073,
      "непо": 8074,
      "първата": 8075,
      "свой": 8076,
      "Rich": 8077,
      "##liny": 8078,
      "##пании": 8079,
      "nabí": 8080,
      "základní": 8081,
      "##liwości": 8082,
      "nech": 8083,
      "państw": 8084,
      "musi": 8085,
      "##bę": 8086,
      "##rody": 8087,
      "влия": 8088,
      "##сма": 8089,
      "třetí": 8090,
      "##анк": 8091,
      "популяр": 8092,
      "1954": 8093,
      "jih": 8094,
      "Mie": 8095,
      "конфли": 8096,
      "поради": 8097,
      "powodu": 8098,
      "литера": 8099,
      "действи": 8100,
      "49": 8101,
      "Pla": 8102,
      "състав": 8103,
      "Ver": 8104,
      "poku": 8105,
      "rzą": 8106,
      "Anton": 8107,
      "собствен": 8108,
      "ска": 8109,
      "##mien": 8110,
      "##skyt": 8111,
      "площа": 8112,
      "meziná": 8113,
      "подчеркну": 8114,
      "rez": 8115,
      "król": 8116,
      "Let": 8117,
      "zví": 8118,
      "предлага": 8119,
      "выбор": 8120,
      "Pół": 8121,
      "##pit": 8122,
      "##шно": 8123,
      "кате": 8124,
      "##ерман": 8125,
      "pierwszym": 8126,
      "Pom": 8127,
      "nejlep": 8128,
      "domu": 8129,
      "Hel": 8130,
      "46": 8131,
      "##vádí": 8132,
      "световна": 8133,
      "rozlo": 8134,
      "Ślą": 8135,
      "sen": 8136,
      "pojawi": 8137,
      "лу": 8138,
      "Air": 8139,
      "##стана": 8140,
      "Констан": 8141,
      "##zav": 8142,
      "военно": 8143,
      "pochod": 8144,
      "ści": 8145,
      "Słoń": 8146,
      "Świę": 8147,
      "skupina": 8148,
      "možné": 8149,
      "Wor": 8150,
      "Сред": 8151,
      "##żą": 8152,
      "##lar": 8153,
      "доста": 8154,
      "biał": 8155,
      "mnoha": 8156,
      "##liz": 8157,
      "##poč": 8158,
      "zpě": 8159,
      "полови": 8160,
      "centrum": 8161,
      "##ите": 8162,
      "české": 8163,
      "zákla": 8164,
      "##дже": 8165,
      "zemřel": 8166,
      "uczest": 8167,
      "височина": 8168,
      "którą": 8169,
      "šest": 8170,
      "##znamen": 8171,
      "Ско": 8172,
      "тро": 8173,
      "##ówno": 8174,
      "tor": 8175,
      "##вари": 8176,
      "##méně": 8177,
      "##жу": 8178,
      "##нията": 8179,
      "правительства": 8180,
      "1965": 8181,
      "##чната": 8182,
      "swoją": 8183,
      "##ib": 8184,
      "##дий": 8185,
      "Европе": 8186,
      "##nam": 8187,
      "##fy": 8188,
      "znovu": 8189,
      "Następ": 8190,
      "##božen": 8191,
      "trzech": 8192,
      "нор": 8193,
      "город": 8194,
      "##ira": 8195,
      "Open": 8196,
      "##тъ": 8197,
      "případě": 8198,
      "160": 8199,
      "##mer": 8200,
      "государствен": 8201,
      "подтвер": 8202,
      "усп": 8203,
      "jezi": 8204,
      "##odzi": 8205,
      "wojnie": 8206,
      "##ovice": 8207,
      "##tedy": 8208,
      "zł": 8209,
      "Бра": 8210,
      "dvoj": 8211,
      "Ří": 8212,
      "##тили": 8213,
      "1966": 8214,
      "##onia": 8215,
      "функ": 8216,
      "##връща": 8217,
      "пое": 8218,
      "problém": 8219,
      "##śni": 8220,
      "должны": 8221,
      "císař": 8222,
      "círk": 8223,
      "радио": 8224,
      "##храните": 8225,
      "hvě": 8226,
      "##waj": 8227,
      "##szu": 8228,
      "своя": 8229,
      "##кий": 8230,
      "nejvyšší": 8231,
      "Вар": 8232,
      "##onů": 8233,
      "френ": 8234,
      "##гласно": 8235,
      "postupně": 8236,
      "##телство": 8237,
      "##фек": 8238,
      "##nal": 8239,
      "dél": 8240,
      "тъ": 8241,
      "##umie": 8242,
      "##ria": 8243,
      "provoz": 8244,
      "##opol": 8245,
      "różnych": 8246,
      "##prve": 8247,
      "##lia": 8248,
      "##шед": 8249,
      "##обре": 8250,
      "##шь": 8251,
      "moder": 8252,
      "komunika": 8253,
      "##fini": 8254,
      "inne": 8255,
      "##ОН": 8256,
      "klasi": 8257,
      "бълга": 8258,
      "króla": 8259,
      "##яването": 8260,
      "##wania": 8261,
      "Marie": 8262,
      "dowód": 8263,
      "##нев": 8264,
      "powstał": 8265,
      "муж": 8266,
      "sprá": 8267,
      "##цент": 8268,
      "завер": 8269,
      "обаче": 8270,
      "uważ": 8271,
      "голяма": 8272,
      "##mienia": 8273,
      "gry": 8274,
      "Japon": 8275,
      "##skok": 8276,
      "элект": 8277,
      "##yczne": 8278,
      "Ga": 8279,
      "##ps": 8280,
      "Obecnie": 8281,
      "pev": 8282,
      "finan": 8283,
      "Пол": 8284,
      "##вят": 8285,
      "##cjach": 8286,
      "trady": 8287,
      "sně": 8288,
      "charaktery": 8289,
      "преду": 8290,
      "podpo": 8291,
      "Русия": 8292,
      "brytyj": 8293,
      "předsed": 8294,
      "##stw": 8295,
      "zt": 8296,
      "твор": 8297,
      "France": 8298,
      "Odkry": 8299,
      "##enta": 8300,
      "Piot": 8301,
      "работ": 8302,
      "##дено": 8303,
      "Гор": 8304,
      "##cký": 8305,
      "##romá": 8306,
      "##прово": 8307,
      "##лните": 8308,
      "##щото": 8309,
      "prawa": 8310,
      "1958": 8311,
      "prowincji": 8312,
      "##тори": 8313,
      "широ": 8314,
      "vl": 8315,
      "##ссе": 8316,
      "елект": 8317,
      "избира": 8318,
      "СМ": 8319,
      "##lot": 8320,
      "pew": 8321,
      "дел": 8322,
      "mieszk": 8323,
      "##вей": 8324,
      "##rócił": 8325,
      "одного": 8326,
      "##мин": 8327,
      "Mer": 8328,
      "##čila": 8329,
      "според": 8330,
      "##atecznie": 8331,
      "społecz": 8332,
      "остава": 8333,
      "организация": 8334,
      "uz": 8335,
      "chy": 8336,
      "ostrov": 8337,
      "##шин": 8338,
      "##owskim": 8339,
      "bardziej": 8340,
      "Polskiego": 8341,
      "one": 8342,
      "близо": 8343,
      "##alnym": 8344,
      "гор": 8345,
      "Джон": 8346,
      "Vi": 8347,
      "1962": 8348,
      "funkci": 8349,
      "##aną": 8350,
      "kostel": 8351,
      "kształ": 8352,
      "##ycznych": 8353,
      "Aleks": 8354,
      "били": 8355,
      "potom": 8356,
      "okolí": 8357,
      "głównego": 8358,
      "трех": 8359,
      "форма": 8360,
      "Pe": 8361,
      "коло": 8362,
      "sto": 8363,
      "жиз": 8364,
      "##zyj": 8365,
      "бес": 8366,
      "втор": 8367,
      "Martin": 8368,
      "zatím": 8369,
      "evrop": 8370,
      "Центра": 8371,
      "##ij": 8372,
      "##nictwo": 8373,
      "aż": 8374,
      "výsled": 8375,
      "##kop": 8376,
      "Zam": 8377,
      "сла": 8378,
      "Българ": 8379,
      "probí": 8380,
      "пят": 8381,
      "praž": 8382,
      "Kry": 8383,
      "##шее": 8384,
      "##гер": 8385,
      "pt": 8386,
      "stwor": 8387,
      "самоле": 8388,
      "Augu": 8389,
      "##лого": 8390,
      "mé": 8391,
      "Лон": 8392,
      "Sc": 8393,
      "obvykle": 8394,
      "##kowym": 8395,
      "1930": 8396,
      "přibli": 8397,
      "нар": 8398,
      "изку": 8399,
      "zgod": 8400,
      "Gre": 8401,
      "газета": 8402,
      "среща": 8403,
      "##ána": 8404,
      "ser": 8405,
      "czyn": 8406,
      "Петер": 8407,
      "вра": 8408,
      "перед": 8409,
      "musí": 8410,
      "stanie": 8411,
      "pł": 8412,
      "российских": 8413,
      "##mysł": 8414,
      "nag": 8415,
      "nimi": 8416,
      "##biut": 8417,
      "##azen": 8418,
      "##граф": 8419,
      "работы": 8420,
      "##lášt": 8421,
      "##меня": 8422,
      "##šla": 8423,
      "получил": 8424,
      "warto": 8425,
      "1936": 8426,
      "židov": 8427,
      "některé": 8428,
      "ran": 8429,
      "##рина": 8430,
      "Кор": 8431,
      "##стру": 8432,
      "Dí": 8433,
      "bli": 8434,
      "##cowo": 8435,
      "zru": 8436,
      "więc": 8437,
      "Свети": 8438,
      "Poté": 8439,
      "Tar": 8440,
      "situ": 8441,
      "можно": 8442,
      "Kap": 8443,
      "roky": 8444,
      "moh": 8445,
      "někdy": 8446,
      "zmar": 8447,
      "przyję": 8448,
      "аль": 8449,
      "резул": 8450,
      "czasu": 8451,
      "zaczę": 8452,
      "##xu": 8453,
      "hospod": 8454,
      "model": 8455,
      "друго": 8456,
      "издание": 8457,
      "rę": 8458,
      "##bav": 8459,
      "##sięcy": 8460,
      "##квата": 8461,
      "##ране": 8462,
      "Rakou": 8463,
      "člově": 8464,
      "napis": 8465,
      "sur": 8466,
      "тру": 8467,
      "um": 8468,
      "##bin": 8469,
      "stanice": 8470,
      "устрой": 8471,
      "wok": 8472,
      "фото": 8473,
      "пти": 8474,
      "firmy": 8475,
      "autobus": 8476,
      "##rup": 8477,
      "образом": 8478,
      "##polit": 8479,
      "Жи": 8480,
      "Ph": 8481,
      "razem": 8482,
      "поку": 8483,
      "Lou": 8484,
      "hrab": 8485,
      "##azd": 8486,
      "FC": 8487,
      "говорится": 8488,
      "dnia": 8489,
      "ата": 8490,
      "себя": 8491,
      "národní": 8492,
      "##cę": 8493,
      "##tua": 8494,
      "оцен": 8495,
      "##čku": 8496,
      "vývoj": 8497,
      "##odní": 8498,
      "вся": 8499,
      "jejím": 8500,
      "##čemž": 8501,
      "##win": 8502,
      "původní": 8503,
      "##ол": 8504,
      "určit": 8505,
      "##běhu": 8506,
      "teren": 8507,
      "котором": 8508,
      "начале": 8509,
      "Глав": 8510,
      "dosá": 8511,
      "Nazwa": 8512,
      "##dělá": 8513,
      "tren": 8514,
      "наслед": 8515,
      "Mosk": 8516,
      "##pole": 8517,
      "postaci": 8518,
      "1963": 8519,
      "1952": 8520,
      "pru": 8521,
      "филм": 8522,
      "skrzy": 8523,
      "tisí": 8524,
      "znalaz": 8525,
      "64": 8526,
      "stejně": 8527,
      "host": 8528,
      "Hlavní": 8529,
      "tek": 8530,
      "##сън": 8531,
      "##яване": 8532,
      "именно": 8533,
      "ostro": 8534,
      "53": 8535,
      "označení": 8536,
      "сам": 8537,
      "poto": 8538,
      "průmys": 8539,
      "Ана": 8540,
      "kultury": 8541,
      "Гърция": 8542,
      "symbo": 8543,
      "##ностран": 8544,
      "##onieważ": 8545,
      "hled": 8546,
      "##жай": 8547,
      "фран": 8548,
      "##ósł": 8549,
      "cyk": 8550,
      "roční": 8551,
      "svém": 8552,
      "##зин": 8553,
      "кос": 8554,
      "##ždy": 8555,
      "přičemž": 8556,
      "společně": 8557,
      "##ařilo": 8558,
      "##вра": 8559,
      "programu": 8560,
      "1961": 8561,
      "##tur": 8562,
      "wszystkie": 8563,
      "эк": 8564,
      "křes": 8565,
      "połowie": 8566,
      "poprzez": 8567,
      "Paw": 8568,
      "##тво": 8569,
      "тради": 8570,
      "średniej": 8571,
      "Rady": 8572,
      "##rza": 8573,
      "Jednak": 8574,
      "расследова": 8575,
      "ек": 8576,
      "##vala": 8577,
      "оружи": 8578,
      "pobli": 8579,
      "##игра": 8580,
      "Gal": 8581,
      "умира": 8582,
      "бой": 8583,
      "związku": 8584,
      "##лийски": 8585,
      "twór": 8586,
      "podnik": 8587,
      "pil": 8588,
      "Ад": 8589,
      "часть": 8590,
      "например": 8591,
      "lev": 8592,
      "Рос": 8593,
      "udá": 8594,
      "эта": 8595,
      "ramach": 8596,
      "##охраните": 8597,
      "съществу": 8598,
      "##ciela": 8599,
      "струк": 8600,
      "pravděpodob": 8601,
      "wier": 8602,
      "##cho": 8603,
      "##лог": 8604,
      "##нове": 8605,
      "##ždění": 8606,
      "Европа": 8607,
      "spor": 8608,
      "разде": 8609,
      "nábožen": 8610,
      "##burg": 8611,
      "swojej": 8612,
      "права": 8613,
      "##ura": 8614,
      "руководи": 8615,
      "следу": 8616,
      "##сер": 8617,
      "##ясни": 8618,
      "деятель": 8619,
      "проекта": 8620,
      "##stavě": 8621,
      "Europy": 8622,
      "tj": 8623,
      "##ografie": 8624,
      "##kom": 8625,
      "Micha": 8626,
      "odcin": 8627,
      "adres": 8628,
      "##gal": 8629,
      "##víc": 8630,
      "##nad": 8631,
      "партия": 8632,
      "piosen": 8633,
      "получа": 8634,
      "##gent": 8635,
      "##ling": 8636,
      "капита": 8637,
      "СМИ": 8638,
      "niewiel": 8639,
      "vid": 8640,
      "##kcie": 8641,
      "ведом": 8642,
      "odd": 8643,
      "##риа": 8644,
      "цел": 8645,
      "Република": 8646,
      "part": 8647,
      "Dne": 8648,
      "##tku": 8649,
      "##лд": 8650,
      "##жида": 8651,
      "jež": 8652,
      "původně": 8653,
      "konty": 8654,
      "mand": 8655,
      "##ativní": 8656,
      "##щите": 8657,
      "nichž": 8658,
      "исследова": 8659,
      "rozpoczął": 8660,
      "mini": 8661,
      "консу": 8662,
      "##тиви": 8663,
      "decy": 8664,
      "##хар": 8665,
      "šk": 8666,
      "##лега": 8667,
      "czym": 8668,
      "przypadku": 8669,
      "jim": 8670,
      "##графи": 8671,
      "##сел": 8672,
      "56": 8673,
      "отмечает": 8674,
      "креди": 8675,
      "сим": 8676,
      "##положен": 8677,
      "podpis": 8678,
      "žilo": 8679,
      "Mont": 8680,
      "domá": 8681,
      "většinou": 8682,
      "МВД": 8683,
      "##чително": 8684,
      "##cká": 8685,
      "zahrani": 8686,
      "1934": 8687,
      "1957": 8688,
      "включва": 8689,
      "##raně": 8690,
      "##ovaná": 8691,
      "Дру": 8692,
      "ów": 8693,
      "Основ": 8694,
      "News": 8695,
      "mechani": 8696,
      "Ху": 8697,
      "##lam": 8698,
      "54": 8699,
      "1921": 8700,
      "ludzi": 8701,
      "##вид": 8702,
      "##cenia": 8703,
      "##szt": 8704,
      "##тива": 8705,
      "##anta": 8706,
      "Gro": 8707,
      "##ovaných": 8708,
      "del": 8709,
      "есть": 8710,
      "съюз": 8711,
      "бра": 8712,
      "##ous": 8713,
      "##тельство": 8714,
      "fotbal": 8715,
      "своих": 8716,
      "служба": 8717,
      "57": 8718,
      "случае": 8719,
      "Фили": 8720,
      "začala": 8721,
      "nic": 8722,
      "##точни": 8723,
      "##рист": 8724,
      "должен": 8725,
      "fy": 8726,
      "район": 8727,
      "##сом": 8728,
      "реа": 8729,
      "parlament": 8730,
      "кре": 8731,
      "celkem": 8732,
      "nowo": 8733,
      "pad": 8734,
      "Biał": 8735,
      "příslu": 8736,
      "##atoli": 8737,
      "##sport": 8738,
      "mil": 8739,
      "ital": 8740,
      "samot": 8741,
      "Сте": 8742,
      "##rech": 8743,
      "katolick": 8744,
      "##szk": 8745,
      "technolo": 8746,
      "важ": 8747,
      "##lel": 8748,
      "1912": 8749,
      "изгра": 8750,
      "британ": 8751,
      "zcela": 8752,
      "Северна": 8753,
      "počátku": 8754,
      "##точно": 8755,
      "##owiąz": 8756,
      "спор": 8757,
      "Населението": 8758,
      "##ingu": 8759,
      "##sied": 8760,
      "##wicz": 8761,
      "##бър": 8762,
      "jiných": 8763,
      "##щие": 8764,
      "##фон": 8765,
      "##koliv": 8766,
      "пользова": 8767,
      "##czni": 8768,
      "Мон": 8769,
      "1959": 8770,
      "sobie": 8771,
      "nazwy": 8772,
      "##казыва": 8773,
      "##вые": 8774,
      "пле": 8775,
      "##ujących": 8776,
      "##90": 8777,
      "##щая": 8778,
      "Střed": 8779,
      "видео": 8780,
      "вероят": 8781,
      "Miejscowo": 8782,
      "Evropy": 8783,
      "##ovými": 8784,
      "##чо": 8785,
      "##mag": 8786,
      "dziel": 8787,
      "##óz": 8788,
      "смъртта": 8789,
      "##разу": 8790,
      "ракет": 8791,
      "mlá": 8792,
      "##стеза": 8793,
      "предполага": 8794,
      "възраст": 8795,
      "námě": 8796,
      "##вают": 8797,
      "##писание": 8798,
      "komi": 8799,
      "Původ": 8800,
      "krzy": 8801,
      "##mia": 8802,
      "szer": 8803,
      "rzym": 8804,
      "1953": 8805,
      "ČR": 8806,
      "##вается": 8807,
      "дра": 8808,
      "боеви": 8809,
      "требова": 8810,
      "##trz": 8811,
      "Mad": 8812,
      "средства": 8813,
      "икономи": 8814,
      "projektu": 8815,
      "обвиня": 8816,
      "Tr": 8817,
      "зам": 8818,
      "концер": 8819,
      "клуб": 8820,
      "Aleksand": 8821,
      "иностран": 8822,
      "jedním": 8823,
      "играе": 8824,
      "##гар": 8825,
      "##pě": 8826,
      "kru": 8827,
      "институ": 8828,
      "команд": 8829,
      "##pera": 8830,
      "Има": 8831,
      "Sie": 8832,
      "нарича": 8833,
      "##рови": 8834,
      "роди": 8835,
      "sloven": 8836,
      "##нских": 8837,
      "vole": 8838,
      "##sud": 8839,
      "1951": 8840,
      "задержа": 8841,
      "převá": 8842,
      "prostředí": 8843,
      "swoich": 8844,
      "obcí": 8845,
      "цар": 8846,
      "1935": 8847,
      "William": 8848,
      "рассказал": 8849,
      "Сергей": 8850,
      "shromá": 8851,
      "Ho": 8852,
      "tri": 8853,
      "##дви": 8854,
      "prod": 8855,
      "##обе": 8856,
      "##ławi": 8857,
      "Cam": 8858,
      "##рую": 8859,
      "##ávis": 8860,
      "##sław": 8861,
      "Reut": 8862,
      "стату": 8863,
      "дължи": 8864,
      "находится": 8865,
      "strze": 8866,
      "gr": 8867,
      "днес": 8868,
      "предприя": 8869,
      "##véd": 8870,
      "##ским": 8871,
      "##ycznej": 8872,
      "proved": 8873,
      "пара": 8874,
      "##átor": 8875,
      "##volu": 8876,
      "##SA": 8877,
      "топ": 8878,
      "forma": 8879,
      "ofici": 8880,
      "1932": 8881,
      "близ": 8882,
      "##zył": 8883,
      "pierwsze": 8884,
      "NGC": 8885,
      "##cyjny": 8886,
      "##ály": 8887,
      "Hrad": 8888,
      "systému": 8889,
      "##ią": 8890,
      "главы": 8891,
      "роля": 8892,
      "1928": 8893,
      "Klub": 8894,
      "Dom": 8895,
      "kg": 8896,
      "zlat": 8897,
      "докумен": 8898,
      "prób": 8899,
      "Stra": 8900,
      "месе": 8901,
      "umění": 8902,
      "1937": 8903,
      "##vš": 8904,
      "сообщили": 8905,
      "##смот": 8906,
      "кари": 8907,
      "smlou": 8908,
      "zeměděl": 8909,
      "##ies": 8910,
      "##viz": 8911,
      "##держи": 8912,
      "Księ": 8913,
      "##ший": 8914,
      "##mít": 8915,
      "funkcję": 8916,
      "##hledem": 8917,
      "Въпреки": 8918,
      "stosun": 8919,
      "зада": 8920,
      "провинция": 8921,
      "окръг": 8922,
      "takich": 8923,
      "##řena": 8924,
      "манасти": 8925,
      "vi": 8926,
      "Christ": 8927,
      "пример": 8928,
      "mieście": 8929,
      "Ir": 8930,
      "Fili": 8931,
      "puł": 8932,
      "дър": 8933,
      "рамках": 8934,
      "hand": 8935,
      "děl": 8936,
      "##eti": 8937,
      "dál": 8938,
      "пы": 8939,
      "##ah": 8940,
      "provin": 8941,
      "komuni": 8942,
      "понедель": 8943,
      "сообщалось": 8944,
      "pokon": 8945,
      "Kost": 8946,
      "##ландия": 8947,
      "##тически": 8948,
      "##ерцо": 8949,
      "##mos": 8950,
      "##21": 8951,
      "zabyt": 8952,
      "Бел": 8953,
      "##saż": 8954,
      "##okej": 8955,
      "wojen": 8956,
      "версии": 8957,
      "##šk": 8958,
      "občan": 8959,
      "##стер": 8960,
      "gó": 8961,
      "##кува": 8962,
      "dobu": 8963,
      "tehdy": 8964,
      "krále": 8965,
      "##jících": 8966,
      "времето": 8967,
      "stad": 8968,
      "##lob": 8969,
      "##раиль": 8970,
      "ocen": 8971,
      "Gó": 8972,
      "planetoida": 8973,
      "słu": 8974,
      "jiho": 8975,
      "печели": 8976,
      "##деж": 8977,
      "Pal": 8978,
      "přid": 8979,
      "##owskiej": 8980,
      "среди": 8981,
      "zároveň": 8982,
      "##зъм": 8983,
      "проект": 8984,
      "##iet": 8985,
      "##orów": 8986,
      "##szło": 8987,
      "##рение": 8988,
      "problem": 8989,
      "176": 8990,
      "Dop": 8991,
      "přibližně": 8992,
      "##овых": 8993,
      "##łącz": 8994,
      "źród": 8995,
      "##alna": 8996,
      "##хия": 8997,
      "физи": 8998,
      "Япо": 8999,
      "женщи": 9000,
      "úspěš": 9001,
      "Amer": 9002,
      "църква": 9003,
      "Уи": 9004,
      "krót": 9005,
      "групата": 9006,
      "##hlas": 9007,
      "##íše": 9008,
      "souvis": 9009,
      "człowie": 9010,
      "ośrod": 9011,
      "##вни": 9012,
      "##cieli": 9013,
      "Вы": 9014,
      "##ťan": 9015,
      "##35": 9016,
      "meda": 9017,
      "aktiv": 9018,
      "##mus": 9019,
      "Александр": 9020,
      "поме": 9021,
      "správ": 9022,
      "školy": 9023,
      "Wind": 9024,
      "правоохраните": 9025,
      "rozwi": 9026,
      "minu": 9027,
      "Bole": 9028,
      "Film": 9029,
      "zařízení": 9030,
      "##śred": 9031,
      "130": 9032,
      "Kromě": 9033,
      "58": 9034,
      "zmín": 9035,
      "##стен": 9036,
      "##ped": 9037,
      "výrob": 9038,
      "Minist": 9039,
      "ziem": 9040,
      "некоторы": 9041,
      "##чить": 9042,
      "utworz": 9043,
      "##тивен": 9044,
      "проводи": 9045,
      "zbo": 9046,
      "vzdál": 9047,
      "slav": 9048,
      "powiat": 9049,
      "polovině": 9050,
      "Bru": 9051,
      "ky": 9052,
      "рекла": 9053,
      "klas": 9054,
      "известен": 9055,
      "nazyw": 9056,
      "##andid": 9057,
      "##awia": 9058,
      "týmu": 9059,
      "stanu": 9060,
      "##ney": 9061,
      "polskich": 9062,
      "##чного": 9063,
      "Также": 9064,
      "##anów": 9065,
      "Mał": 9066,
      "##bert": 9067,
      "государства": 9068,
      "пси": 9069,
      "##кро": 9070,
      "##тек": 9071,
      "Reuters": 9072,
      "písem": 9073,
      "уров": 9074,
      "##erytor": 9075,
      "##řila": 9076,
      "jas": 9077,
      "##hru": 9078,
      "##овета": 9079,
      "Gm": 9080,
      "##níky": 9081,
      "wysokości": 9082,
      "ника": 9083,
      "##шие": 9084,
      "170": 9085,
      "##aków": 9086,
      "##aných": 9087,
      "iż": 9088,
      "##нах": 9089,
      "Para": 9090,
      "генерал": 9091,
      "##isty": 9092,
      "XVIII": 9093,
      "провер": 9094,
      "##бен": 9095,
      "##esa": 9096,
      "No": 9097,
      "Wo": 9098,
      "najbardziej": 9099,
      "##šího": 9100,
      "погибли": 9101,
      "akadem": 9102,
      "lep": 9103,
      "написа": 9104,
      "1929": 9105,
      "posiada": 9106,
      "запла": 9107,
      "кино": 9108,
      "##kowego": 9109,
      "prowadzi": 9110,
      "státní": 9111,
      "##ejí": 9112,
      "лишь": 9113,
      "##ír": 9114,
      "##ierze": 9115,
      "##вел": 9116,
      "##стите": 9117,
      "##atyw": 9118,
      "poza": 9119,
      "император": 9120,
      "154": 9121,
      "##řeba": 9122,
      "##zt": 9123,
      "występuje": 9124,
      "##рото": 9125,
      "demokra": 9126,
      "##účast": 9127,
      "wew": 9128,
      "оппози": 9129,
      "oficj": 9130,
      "##kość": 9131,
      "umieszcz": 9132,
      "неизвест": 9133,
      "cię": 9134,
      "Gar": 9135,
      "Министер": 9136,
      "смер": 9137,
      "wło": 9138,
      "##szenia": 9139,
      "rodzin": 9140,
      "##zmu": 9141,
      "zarówno": 9142,
      "Adam": 9143,
      "##ával": 9144,
      "Zjednoczonych": 9145,
      "přímo": 9146,
      "##ędz": 9147,
      "##25": 9148,
      "fron": 9149,
      "връз": 9150,
      "дни": 9151,
      "Vol": 9152,
      "##káz": 9153,
      "обу": 9154,
      "Lin": 9155,
      "Republi": 9156,
      "It": 9157,
      "Фри": 9158,
      "полиции": 9159,
      "##ecyd": 9160,
      "##гам": 9161,
      "##lič": 9162,
      "##usza": 9163,
      "##cien": 9164,
      "вари": 9165,
      "vyrá": 9166,
      "základě": 9167,
      "##aki": 9168,
      "ban": 9169,
      "##рани": 9170,
      "##dopodobnie": 9171,
      "##вода": 9172,
      "członkiem": 9173,
      "##фан": 9174,
      "подготов": 9175,
      "##soci": 9176,
      "scen": 9177,
      "##пет": 9178,
      "##bus": 9179,
      "okrąż": 9180,
      "bohat": 9181,
      "mis": 9182,
      "nevy": 9183,
      "Vil": 9184,
      "##tic": 9185,
      "rozdíl": 9186,
      "eg": 9187,
      "cech": 9188,
      "niep": 9189,
      "##ането": 9190,
      "ближай": 9191,
      "začí": 9192,
      "tř": 9193,
      "prez": 9194,
      "заседа": 9195,
      "попы": 9196,
      "озна": 9197,
      "##ae": 9198,
      "##ben": 9199,
      "arab": 9200,
      "kierow": 9201,
      "света": 9202,
      "král": 9203,
      "##han": 9204,
      "ti": 9205,
      "##mują": 9206,
      "##шна": 9207,
      "##митри": 9208,
      "státu": 9209,
      "nor": 9210,
      "##кат": 9211,
      "řeky": 9212,
      "суда": 9213,
      "##czone": 9214,
      "вторник": 9215,
      "následující": 9216,
      "##prowadzi": 9217,
      "rozwoj": 9218,
      "Čer": 9219,
      "##ecký": 9220,
      "szero": 9221,
      "четири": 9222,
      "##obil": 9223,
      "##ostí": 9224,
      "##częściej": 9225,
      "представитель": 9226,
      "полицей": 9227,
      "##obod": 9228,
      "##ременно": 9229,
      "druhů": 9230,
      "##bieg": 9231,
      "грани": 9232,
      "##креп": 9233,
      "##струк": 9234,
      "ší": 9235,
      "##зона": 9236,
      "pochodzą": 9237,
      "доро": 9238,
      "1913": 9239,
      "koncert": 9240,
      "##вез": 9241,
      "##átu": 9242,
      "получили": 9243,
      "současnosti": 9244,
      "##тър": 9245,
      "Gdy": 9246,
      "punk": 9247,
      "verze": 9248,
      "##чные": 9249,
      "обеспе": 9250,
      "##чник": 9251,
      "##сон": 9252,
      "##ký": 9253,
      "##owaną": 9254,
      "vyj": 9255,
      "##měrně": 9256,
      "dříve": 9257,
      "Kul": 9258,
      "пет": 9259,
      "Южна": 9260,
      "efek": 9261,
      "1955": 9262,
      "##níka": 9263,
      "класи": 9264,
      "одной": 9265,
      "др": 9266,
      "nepo": 9267,
      "карти": 9268,
      "##štění": 9269,
      "юж": 9270,
      "##wają": 9271,
      "1000": 9272,
      "диви": 9273,
      "podí": 9274,
      "Кали": 9275,
      "právě": 9276,
      "waż": 9277,
      "##ěji": 9278,
      "Mimo": 9279,
      "##ścia": 9280,
      "реко": 9281,
      "##гова": 9282,
      "gdyż": 9283,
      "людей": 9284,
      "spowod": 9285,
      "Фор": 9286,
      "##пов": 9287,
      "podstawie": 9288,
      "семь": 9289,
      "dyna": 9290,
      "prem": 9291,
      "ден": 9292,
      "директор": 9293,
      "1933": 9294,
      "изслед": 9295,
      "wykorzyst": 9296,
      "##však": 9297,
      "##pon": 9298,
      "otwar": 9299,
      "com": 9300,
      "понедельник": 9301,
      "František": 9302,
      "##lec": 9303,
      "влиза": 9304,
      "акаде": 9305,
      "##70": 9306,
      "службы": 9307,
      "vody": 9308,
      "##ádu": 9309,
      "międzynarod": 9310,
      "##ом": 9311,
      "##ческите": 9312,
      "1924": 9313,
      "##fikacji": 9314,
      "народ": 9315,
      "движение": 9316,
      "##lid": 9317,
      "matem": 9318,
      "##zkum": 9319,
      "pasa": 9320,
      "##ровали": 9321,
      "министра": 9322,
      "##not": 9323,
      "nezávis": 9324,
      "střední": 9325,
      "Univers": 9326,
      "кораб": 9327,
      "##nému": 9328,
      "возбу": 9329,
      "jednego": 9330,
      "##рю": 9331,
      "опит": 9332,
      "достига": 9333,
      "společen": 9334,
      "##poli": 9335,
      "##мой": 9336,
      "##ticky": 9337,
      "Karel": 9338,
      "дет": 9339,
      "сей": 9340,
      "##stroj": 9341,
      "отношении": 9342,
      "ograni": 9343,
      "##тана": 9344,
      "da": 9345,
      "среду": 9346,
      "##kuje": 9347,
      "##bran": 9348,
      "##zel": 9349,
      "##ondy": 9350,
      "демо": 9351,
      "##niczy": 9352,
      "##сор": 9353,
      "wojska": 9354,
      "готов": 9355,
      "##olot": 9356,
      "bram": 9357,
      "##йдет": 9358,
      "parafii": 9359,
      "získala": 9360,
      "смя": 9361,
      "plá": 9362,
      "dokonce": 9363,
      "##ts": 9364,
      "tury": 9365,
      "изче": 9366,
      "použit": 9367,
      "##mot": 9368,
      "##рих": 9369,
      "Między": 9370,
      "##owice": 9371,
      "voleb": 9372,
      "##ъра": 9373,
      "oddział": 9374,
      "Vlad": 9375,
      "баща": 9376,
      "##strze": 9377,
      "##циите": 9378,
      "##кое": 9379,
      "##шава": 9380,
      "##átní": 9381,
      "granic": 9382,
      "пъти": 9383,
      "##сматри": 9384,
      "wydaw": 9385,
      "Rec": 9386,
      "Алек": 9387,
      "обы": 9388,
      "##падна": 9389,
      "##yj": 9390,
      "pozostał": 9391,
      "##idla": 9392,
      "insp": 9393,
      "roślin": 9394,
      "Mic": 9395,
      "severní": 9396,
      "zapis": 9397,
      "##ял": 9398,
      "##inter": 9399,
      "1900": 9400,
      "ООН": 9401,
      "тек": 9402,
      "inst": 9403,
      "Роден": 9404,
      "osied": 9405,
      "místní": 9406,
      "1925": 9407,
      "##tit": 9408,
      "tradi": 9409,
      "##лив": 9410,
      "##ůr": 9411,
      "důležit": 9412,
      "##enes": 9413,
      "треть": 9414,
      "##ходит": 9415,
      "peł": 9416,
      "chor": 9417,
      "христи": 9418,
      "uk": 9419,
      "drob": 9420,
      "##сут": 9421,
      "няма": 9422,
      "окон": 9423,
      "papie": 9424,
      "министер": 9425,
      "gwiazd": 9426,
      "povr": 9427,
      "swojego": 9428,
      "##потре": 9429,
      "##ímž": 9430,
      "##zace": 9431,
      "##нд": 9432,
      "телека": 9433,
      "##воз": 9434,
      "rolę": 9435,
      "##рения": 9436,
      "wtedy": 9437,
      "vyšší": 9438,
      "las": 9439,
      "výstav": 9440,
      "kní": 9441,
      "прекра": 9442,
      "нов": 9443,
      "warun": 9444,
      "суде": 9445,
      "##ствии": 9446,
      "175": 9447,
      "Alexand": 9448,
      "##kově": 9449,
      "Kali": 9450,
      "##лору": 9451,
      "##kup": 9452,
      "redak": 9453,
      "докато": 9454,
      "Mora": 9455,
      "подписа": 9456,
      "##ждане": 9457,
      "Ham": 9458,
      "potrze": 9459,
      "составляет": 9460,
      "##hů": 9461,
      "рим": 9462,
      "##ровал": 9463,
      "слож": 9464,
      "stoli": 9465,
      "počíta": 9466,
      "Tele": 9467,
      "omez": 9468,
      "fyzi": 9469,
      "hokej": 9470,
      "разре": 9471,
      "start": 9472,
      "##łud": 9473,
      "##таль": 9474,
      "časopis": 9475,
      "##bili": 9476,
      "zali": 9477,
      "##anou": 9478,
      "Ant": 9479,
      "парламента": 9480,
      "##gos": 9481,
      "##střed": 9482,
      "##нос": 9483,
      "дипло": 9484,
      "##isti": 9485,
      "hlas": 9486,
      "##legł": 9487,
      "as": 9488,
      "##TA": 9489,
      "заявили": 9490,
      "Sport": 9491,
      "funkcjon": 9492,
      "следва": 9493,
      "##юза": 9494,
      "takie": 9495,
      "##мно": 9496,
      "hrani": 9497,
      "##жар": 9498,
      "недо": 9499,
      "##ern": 9500,
      "выступа": 9501,
      "minut": 9502,
      "kal": 9503,
      "оръ": 9504,
      "bran": 9505,
      "##ickým": 9506,
      "dostal": 9507,
      "majet": 9508,
      "##oba": 9509,
      "przeciwko": 9510,
      "broni": 9511,
      "Хе": 9512,
      "aw": 9513,
      "##lý": 9514,
      "##стър": 9515,
      "##lił": 9516,
      "Amery": 9517,
      "sytua": 9518,
      "##ečně": 9519,
      "Мы": 9520,
      "технологи": 9521,
      "hlavně": 9522,
      "##ann": 9523,
      "летний": 9524,
      "Bro": 9525,
      "telewi": 9526,
      "zvolen": 9527,
      "żad": 9528,
      "##послед": 9529,
      "Począt": 9530,
      "165": 9531,
      "##arda": 9532,
      "připoj": 9533,
      "##organiz": 9534,
      "изпра": 9535,
      "tá": 9536,
      "set": 9537,
      "pojmen": 9538,
      "kterém": 9539,
      "сл": 9540,
      "ilo": 9541,
      "sám": 9542,
      "продолжа": 9543,
      "tvor": 9544,
      "##ows": 9545,
      "tato": 9546,
      "террори": 9547,
      "zpět": 9548,
      "rzeczy": 9549,
      "org": 9550,
      "řed": 9551,
      "pryw": 9552,
      "władz": 9553,
      "děj": 9554,
      "##пата": 9555,
      "Pas": 9556,
      "##ezpie": 9557,
      "85": 9558,
      "bal": 9559,
      "##аны": 9560,
      "převážně": 9561,
      "světě": 9562,
      "metod": 9563,
      "##турата": 9564,
      "##rální": 9565,
      "##част": 9566,
      "wska": 9567,
      "аэро": 9568,
      "изклю": 9569,
      "následně": 9570,
      "Zas": 9571,
      "Rol": 9572,
      "izrael": 9573,
      "świecie": 9574,
      "прокура": 9575,
      "##pośred": 9576,
      "стали": 9577,
      "##ativ": 9578,
      "1927": 9579,
      "rakou": 9580,
      "учен": 9581,
      "акций": 9582,
      "интернет": 9583,
      "##ового": 9584,
      "##átel": 9585,
      "##roval": 9586,
      "##нам": 9587,
      "##anton": 9588,
      "предпри": 9589,
      "##образ": 9590,
      "##ecze": 9591,
      "първия": 9592,
      "zaw": 9593,
      "1922": 9594,
      "##еров": 9595,
      "##тка": 9596,
      "pohá": 9597,
      "wpływ": 9598,
      "62": 9599,
      "produkcji": 9600,
      "##ay": 9601,
      "mom": 9602,
      "##stat": 9603,
      "aktor": 9604,
      "##дал": 9605,
      "hrál": 9606,
      "działania": 9607,
      "##див": 9608,
      "осъ": 9609,
      "##руг": 9610,
      "konk": 9611,
      "отношения": 9612,
      "състеза": 9613,
      "группы": 9614,
      "##lak": 9615,
      "Гла": 9616,
      "Мария": 9617,
      "##кновено": 9618,
      "uzav": 9619,
      "Instytu": 9620,
      "Аль": 9621,
      "сгра": 9622,
      "scé": 9623,
      "##ътреш": 9624,
      "##piero": 9625,
      "менее": 9626,
      "ката": 9627,
      "стране": 9628,
      "pokud": 9629,
      "переговор": 9630,
      "выпол": 9631,
      "dram": 9632,
      "stylu": 9633,
      "kl": 9634,
      "вода": 9635,
      "Три": 9636,
      "пятницу": 9637,
      "##шни": 9638,
      "ny": 9639,
      "kontra": 9640,
      "отве": 9641,
      "##rt": 9642,
      "##imi": 9643,
      "подчеркнул": 9644,
      "больше": 9645,
      "##kař": 9646,
      "назначен": 9647,
      "jedną": 9648,
      "##ines": 9649,
      "Ген": 9650,
      "plán": 9651,
      "širo": 9652,
      "республики": 9653,
      "##eš": 9654,
      "męż": 9655,
      "přístup": 9656,
      "swoim": 9657,
      "##сона": 9658,
      "kandid": 9659,
      "1923": 9660,
      "norm": 9661,
      "##entem": 9662,
      "##wski": 9663,
      "##ску": 9664,
      "четверг": 9665,
      "##ръб": 9666,
      "návr": 9667,
      "постоя": 9668,
      "resp": 9669,
      "dopiero": 9670,
      "kościół": 9671,
      "жерт": 9672,
      "Tran": 9673,
      "обществен": 9674,
      "##gląd": 9675,
      "##stanowi": 9676,
      "начин": 9677,
      "Associ": 9678,
      "##11": 9679,
      "76": 9680,
      "##цени": 9681,
      "подозрева": 9682,
      "##que": 9683,
      "##dzenia": 9684,
      "jménem": 9685,
      "##czyna": 9686,
      "фе": 9687,
      "##pila": 9688,
      "специаль": 9689,
      "##nů": 9690,
      "Сей": 9691,
      "Мал": 9692,
      "произош": 9693,
      "Est": 9694,
      "##niejszych": 9695,
      "popis": 9696,
      "##зя": 9697,
      "prakty": 9698,
      "czar": 9699,
      "Andrze": 9700,
      "медици": 9701,
      "mog": 9702,
      "##кипа": 9703,
      "World": 9704,
      "Роб": 9705,
      "качестве": 9706,
      "Пари": 9707,
      "Její": 9708,
      "74": 9709,
      "obou": 9710,
      "jižní": 9711,
      "účin": 9712,
      "##ческие": 9713,
      "##телството": 9714,
      "kierunku": 9715,
      "сиг": 9716,
      "1914": 9717,
      "Słońce": 9718,
      "Was": 9719,
      "zel": 9720,
      "##нисти": 9721,
      "Nap": 9722,
      "polskiej": 9723,
      "##dru": 9724,
      "festi": 9725,
      "David": 9726,
      "wchodzi": 9727,
      "първите": 9728,
      "езе": 9729,
      "бом": 9730,
      "hř": 9731,
      "skuteč": 9732,
      "сме": 9733,
      "Izra": 9734,
      "##тому": 9735,
      "##глав": 9736,
      "Kla": 9737,
      "##nios": 9738,
      "1905": 9739,
      "##daje": 9740,
      "собра": 9741,
      "Kop": 9742,
      "mak": 9743,
      "втори": 9744,
      "Ameri": 9745,
      "попа": 9746,
      "##owców": 9747,
      "своего": 9748,
      "Sil": 9749,
      "##pus": 9750,
      "##тивно": 9751,
      "powoł": 9752,
      "hráč": 9753,
      "##ым": 9754,
      "бър": 9755,
      "Nachází": 9756,
      "закры": 9757,
      "obsa": 9758,
      "##ováním": 9759,
      "jednoho": 9760,
      "##емых": 9761,
[...]
